<unk>	0
<s>	0
</s>	0
▁t	-0
▁a	-1
য়	-2
he	-3
in	-4
en	-5
ার	-6
▁<	-7
▁ক	-8
▁the	-9
▁স	-10
▁ব	-11
▁প	-12
ের	-13
্য	-14
▁o	-15
▁s	-16
্র	-17
re	-18
▁এ	-19
er	-20
▁c	-21
▁w	-22
an	-23
ান	-24
bn	-25
on	-26
▁b	-27
at	-28
is	-29
it	-30
es	-31
▁হ	-32
▁p	-33
▁f	-34
▁কর	-35
▁অ	-36
ed	-37
▁আ	-38
or	-39
ou	-40
▁m	-41
▁in	-42
▁য	-43
ing	-44
▁ম	-45
al	-46
টি	-47
্ত	-48
▁of	-49
ar	-50
▁an	-51
▁ত	-52
▁দ	-53
▁ন	-54
▁to	-55
য়ে	-56
▁h	-57
র্	-58
▁জ	-59
কে	-60
▁d	-61
as	-62
▁প্র	-63
▁l	-64
ic	-65
▁and	-66
তে	-67
om	-68
িল	-69
িক	-70
বে	-71
ion	-72
ায়	-73
▁th	-74
বং	-75
▁n	-76
▁এবং	-77
il	-78
েন	-79
ent	-80
ুল	-81
▁e	-82
▁বি	-83
াল	-84
le	-85
িন	-86
▁g	-87
্ট	-88
▁re	-89
িত	-90
ছিল	-91
▁be	-92
▁গ	-93
▁শ	-94
্ব	-95
▁এক	-96
st	-97
▁র	-98
▁উ	-99
▁করে	-100
ve	-101
▁is	-102
▁ভ	-103
ly	-104
গুল	-105
ro	-106
▁থ	-107
ড়	-108
▁সম	-109
্যা	-110
▁পর	-111
তি	-112
▁বা	-113
ছে	-114
্ষ	-115
▁on	-116
ন্য	-117
িয়	-118
▁চ	-119
ct	-120
দের	-121
▁st	-122
▁u	-123
et	-124
ig	-125
ow	-126
ot	-127
লে	-128
্থ	-129
im	-130
ির	-131
ra	-132
▁y	-133
▁সা	-134
▁যে	-135
াস	-136
্প	-137
ay	-138
েশ	-139
id	-140
ce	-141
▁নি	-142
াই	-143
ur	-144
ver	-145
▁for	-146
▁একটি	-147
ir	-148
▁"	-149
ad	-150
াত	-151
ation	-152
ol	-153
ut	-154
ওয়	-155
ভা	-156
াক	-157
▁অন	-158
▁are	-159
se	-160
▁1	-161
▁or	-162
▁you	-163
▁হয়ে	-164
▁al	-165
▁it	-166
▁as	-167
িস	-168
▁জন্য	-169
▁তা	-170
▁that	-171
▁ফ	-172
▁যা	-173
am	-174
ith	-175
রা	-176
্ক	-177
▁wh	-178
▁with	-179
and	-180
ক্ষ	-181
েকে	-182
▁mo	-183
গুলি	-184
▁(	-185
▁ই	-186
▁পার	-187
ch	-188
▁খ	-189
▁না	-190
if	-191
▁at	-192
▁r	-193
ুর	-194
ul	-195
ন্	-196
ক্ত	-197
▁we	-198
▁করা	-199
oun	-200
ীয়	-201
িয়ে	-202
পন	-203
ারা	-204
▁fr	-205
▁থেকে	-206
her	-207
▁ল	-208
▁v	-209
ধ্য	-210
ter	-211
th	-212
োন	-213
▁was	-214
▁হয়	-215
েল	-216
বা	-217
রে	-218
ak	-219
ld	-220
op	-221
ill	-222
▁ব্য	-223
▁ধ	-224
▁he	-225
▁দে	-226
জন	-227
est	-228
ge	-229
▁se	-230
▁k	-231
igh	-232
▁সং	-233
▁con	-234
00	-235
▁আপন	-236
pe	-237
ারণ	-238
un	-239
দ্	-240
ist	-241
োগ	-242
▁2	-243
▁j	-244
স্থ	-245
▁এই	-246
▁ne	-247
▁com	-248
▁ও	-249
▁ঘ	-250
াম	-251
ার্	-252
▁from	-253
qu	-254
ri	-255
ain	-256
▁উপ	-257
▁সে	-258
ort	-259
াজ	-260
▁কি	-261
▁ha	-262
বি	-263
▁pro	-264
▁su	-265
▁পরি	-266
▁করতে	-267
ানে	-268
▁ex	-269
▁can	-270
তা	-271
el	-272
োর	-273
ers	-274
▁ch	-275
os	-276
all	-277
▁un	-278
খন	-279
▁পারে	-280
us	-281
ity	-282
কার	-283
াকে	-284
▁by	-285
ck	-286
ble	-287
ight	-288
্যান	-289
""	-290
নে	-291
▁বিশ	-292
▁মধ্য	-293
▁ট	-294
▁বেশ	-295
ছিলেন	-296
থে	-297
দি	-298
ষ্ট	-299
ome	-300
▁sh	-301
ছু	-302
্চ	-303
্ড	-304
ate	-305
স্ত	-306
লা	-307
্ন	-308
our	-309
্রম	-310
▁এর	-311
বহ	-312
ুন	-313
দ্ধ	-314
▁পা	-315
▁they	-316
ci	-317
▁have	-318
iv	-319
ess	-320
ure	-321
▁de	-322
▁অব	-323
▁কোন	-324
▁তার	-325
▁মধ্যে	-326
মা	-327
▁le	-328
▁ছ	-329
▁ar	-330
▁প্রতি	-331
ষ্	-332
art	-333
ন্ত	-334
ment	-335
▁wor	-336
▁কিছু	-337
ওয়া	-338
ুম	-339
েক	-340
ive	-341
াড়	-342
▁whe	-343
▁tra	-344
▁এটি	-345
▁this	-346
রি	-347
োট	-348
od	-349
ies	-350
নের	-351
বার	-352
ওয়ার	-353
▁ড	-354
ভাবে	-355
▁সাথে	-356
্রে	-357
ally	-358
▁not	-359
ap	-360
gh	-361
ant	-362
ous	-363
out	-364
ত্ত	-365
ুক্ত	-366
▁স্থ	-367
▁তাদের	-368
্স	-369
end	-370
▁হল	-371
গুলো	-372
▁সময়	-373
ia	-374
্ল	-375
ast	-376
মান	-377
ount	-378
port	-379
▁ছিল	-380
িশ	-381
ich	-382
▁pl	-383
▁থাক	-384
▁করার	-385
em	-386
েই	-387
ard	-388
res	-389
▁রা	-390
▁থাকে	-391
▁হয়েছিল	-392
ud	-393
um	-394
মন	-395
ian	-396
ূর্	-397
ৃত	-398
ust	-399
▁man	-400
▁দ্ব	-401
▁সম্প	-402
▁প্রায়	-403
ry	-404
াপ	-405
িট	-406
▁us	-407
ound	-408
▁যায়	-409
▁which	-410
ঙ্	-411
red	-412
র্ত	-413
▁go	-414
ough	-415
▁has	-416
য়েছে	-417
vel	-418
রের	-419
াবে	-420
ালে	-421
ther	-422
াত্র	-423
▁were	-424
্রমণ	-425
▁অন্য	-426
so	-427
মে	-428
ated	-429
▁দেখ	-430
▁most	-431
ong	-432
ঙ্গ	-433
▁ab	-434
▁af	-435
টা	-436
রণ	-437
ীর	-438
র্থ	-439
িনি	-440
▁আর	-441
ould	-442
▁all	-443
▁দেশ	-444
▁নির্	-445
▁ব্যবহ	-446
▁রয়েছে	-447
াশ	-448
ang	-449
▁ev	-450
▁গ্র	-451
▁যদি	-452
ip	-453
না	-454
ীন	-455
ans	-456
der	-457
চিত	-458
▁মা	-459
খানে	-460
▁হবে	-461
▁will	-462
তো	-463
ভি	-464
ূল	-465
▁cl	-466
▁অনু	-467
▁হিস	-468
▁some	-469
জ্	-470
েত	-471
ছেন	-472
যোগ	-473
▁en	-474
▁pe	-475
▁ক্ষ	-476
ag	-477
ংশ	-478
েষ	-479
োক	-480
ুরু	-481
ান্ত	-482
▁বলে	-483
▁count	-484
্দ	-485
ide	-486
ন্দ	-487
▁দু	-488
ions	-489
▁other	-490
▁their	-491
▁বিশ্ব	-492
cc	-493
্ম	-494
ect	-495
fer	-496
ভাব	-497
িকে	-498
▁সব	-499
েয়ে	-500
▁but	-501
▁had	-502
▁one	-503
▁comp	-504
▁অনেক	-505
▁কারণ	-506
▁আপনার	-507
▁ব্যবহার	-508
▁lo	-509
▁sp	-510
▁int	-511
▁জান	-512
▁স্ব	-513
▁more	-514
ok	-515
ime	-516
per	-517
ম্প	-518
▁""	-519
▁আগ	-520
িয়া	-521
▁your	-522
চ্	-523
ake	-524
ear	-525
now	-526
▁sa	-527
ানের	-528
▁when	-529
▁আপনি	-530
▁তারা	-531
ind	-532
ish	-533
ন্ট	-534
▁19	-535
▁do	-536
▁তৈ	-537
▁সহ	-538
▁its	-539
▁over	-540
▁দিয়ে	-541
ik	-542
িং	-543
ile	-544
▁im	-545
▁আক	-546
iz	-547
োম	-548
▁ro	-549
▁bec	-550
▁per	-551
▁পর্য	-552
▁বেশি	-553
▁there	-554
ens	-555
ড়ে	-556
প্র	-557
ষ্ঠ	-558
▁ph	-559
▁খু	-560
▁ভা	-561
▁এমন	-562
্যান্ড	-563
▁নিয়ে	-564
▁করেছিল	-565
ie	-566
সে	-567
ace	-568
age	-569
orm	-570
ভাগ	-571
▁so	-572
▁আম	-573
▁কে	-574
ধারণ	-575
▁ind	-576
▁out	-577
▁মান	-578
▁also	-579
▁many	-580
▁ভ্রমণ	-581
lo	-582
বল	-583
ass	-584
one	-585
▁co	-586
▁বছ	-587
▁সর	-588
▁কিন	-589
▁তবে	-590
▁part	-591
▁peop	-592
▁ব্যা	-593
থম	-594
োল	-595
ack	-596
ber	-597
জ্ঞ	-598
তির	-599
য়ো	-600
▁ag	-601
▁কম	-602
▁জন	-603
ater	-604
িয়ান	-605
▁হিসাবে	-606
ab	-607
ll	-608
িপ	-609
▁১	-610
ice	-611
ire	-612
স্ক	-613
▁কা	-614
য়ের	-615
িন্ন	-616
▁new	-617
▁মতো	-618
▁time	-619
▁অবস্থ	-620
▁people	-621
av	-622
pt	-623
▁3	-624
ame	-625
▁ad	-626
ning	-627
ূর্ণ	-628
▁dif	-629
▁dis	-630
▁বিষ	-631
য়োজন	-632
▁সাধারণ	-633
ুষ	-634
ine	-635
▁if	-636
▁tr	-637
▁নে	-638
▁সু	-639
ুদ্ধ	-640
▁স্ট	-641
▁world	-642
▁হয়েছে	-643
pp	-644
ign	-645
ore	-646
ose	-647
ল্প	-648
able	-649
ical	-650
land	-651
tern	-652
very	-653
▁fir	-654
▁সম্	-655
▁তৈরি	-656
ff	-657
als	-658
ten	-659
ult	-660
লের	-661
িতে	-662
▁gr	-663
▁আস	-664
ance	-665
ক্তি	-666
বর্ত	-667
্যাল	-668
▁car	-669
▁off	-670
▁spe	-671
▁হতে	-672
গুলির	-673
▁comm	-674
▁than	-675
▁তিনি	-676
▁first	-677
▁স্থান	-678
▁travel	-679
cl	-680
ঞ্	-681
০০	-682
ঞ্চ	-683
ঞ্জ	-684
ence	-685
ents	-686
ীদের	-687
▁been	-688
।"	-689
থা	-690
াহ	-691
োপ	-692
act	-693
ces	-694
con	-695
day	-696
ite	-697
ধান	-698
▁am	-699
▁bo	-700
▁up	-701
িক্ষ	-702
▁how	-703
▁res	-704
▁পরে	-705
▁know	-706
ations	-707
▁প্রথম	-708
▁প্রয়োজন	-709
নি	-710
েম	-711
ild	-712
▁br	-713
▁আই	-714
িকার	-715
▁mar	-716
▁may	-717
▁reg	-718
▁who	-719
▁অভি	-720
▁আরও	-721
▁ভাষ	-722
▁রাখ	-723
▁only	-724
▁year	-725
াদ	-726
ory	-727
ree	-728
ular	-729
▁about	-730
▁after	-731
▁differ	-732
au	-733
ru	-734
ays	-735
ike	-736
ক্র	-737
তার	-738
বেন	-739
স্ট	-740
▁me	-741
▁no	-742
▁ra	-743
ings	-744
য়ার	-745
▁his	-746
▁কাজ	-747
▁যখন	-748
▁অর্থ	-749
▁করেন	-750
▁সালে	-751
▁মানুষ	-752
কি	-753
বাহ	-754
্তু	-755
▁po	-756
▁tw	-757
ited	-758
স্থা	-759
্যের	-760
▁acc	-761
▁att	-762
▁inv	-763
▁অংশ	-764
▁নিজ	-765
▁বিভ	-766
▁ব্র	-767
▁মূল	-768
▁উত্ত	-769
▁দ্বারা	-770
টন	-771
শন	-772
ary	-773
erv	-774
old	-775
ord	-776
গ্র	-777
িটি	-778
▁sc	-779
▁ইউ	-780
ates	-781
েন্ট	-782
▁exp	-783
▁ছোট	-784
▁হলো	-785
▁requ	-786
▁দেয়	-787
▁প্রা	-788
▁while	-789
▁কিন্তু	-790
▁সম্পর্	-791
ue	-792
টে	-793
িও	-794
িব	-795
ict	-796
ত্ব	-797
দেশ	-798
বাদ	-799
মাণ	-800
▁fl	-801
▁অধ	-802
▁শহ	-803
▁200	-804
▁air	-805
▁pos	-806
▁rel	-807
▁vis	-808
▁স্প	-809
ments	-810
▁cent	-811
▁into	-812
▁said	-813
▁অ্যা	-814
▁কোনও	-815
▁নিয়	-816
▁often	-817
▁would	-818
▁বিষয়	-819
▁করেছিলেন	-820
ep	-821
ph	-822
ub	-823
ভব	-824
ষণ	-825
াব	-826
িম	-827
ase	-828
র্ম	-829
ারে	-830
▁fe	-831
▁বো	-832
▁খুব	-833
▁ট্র	-834
▁তাঁ	-835
▁call	-836
▁even	-837
▁দিকে	-838
▁শুরু	-839
ks	-840
াঁ	-841
ail	-842
are	-843
ানো	-844
▁sk	-845
▁রে	-846
▁act	-847
▁loc	-848
▁কার	-849
▁বাই	-850
▁সেই	-851
▁tour	-852
▁গাড়	-853
▁দক্ষ	-854
▁দুর্	-855
ational	-856
▁হওয়ার	-857
▁country	-858
ac	-859
▁২	-860
ade	-861
ors	-862
চার	-863
টির	-864
দ্র	-865
েরা	-866
▁20	-867
▁কো	-868
ious	-869
▁any	-870
▁bot	-871
▁dur	-872
▁ear	-873
▁get	-874
▁war	-875
▁তুল	-876
▁স্ক	-877
ition	-878
িয়ার	-879
▁these	-880
▁ক্ষেত	-881
▁যেখানে	-882
▁বিভিন্ন	-883
▁different	-884
og	-885
চে	-886
ied	-887
বেশ	-888
শ্চ	-889
াইট	-890
▁te	-891
▁অপ	-892
▁বে	-893
▁মু	-894
কারী	-895
ান্য	-896
িয়ন	-897
▁pre	-898
▁উদ্	-899
▁ভাল	-900
▁মাই	-901
▁like	-902
▁বিশেষ	-903
▁বেশির	-904
▁during	-905
▁অন্যান্য	-906
টক	-907
দা	-908
াধ	-909
ীপ	-910
েট	-911
ach	-912
erm	-913
ial	-914
কাল	-915
চ্চ	-916
তিক	-917
শ্য	-918
ীর্	-919
▁sm	-920
▁বল	-921
vers	-922
াতের	-923
ানোর	-924
িস্ট	-925
▁bel	-926
▁inf	-927
▁আছে	-928
▁এখন	-929
▁ক্র	-930
▁বছর	-931
▁যার	-932
▁cont	-933
▁form	-934
▁need	-935
▁them	-936
▁একজন	-937
▁ক্যা	-938
▁under	-939
▁করেছে	-940
▁মাধ্য	-941
▁ক্ষেত্রে	-942
▁বেশিরভাগ	-943
bs	-944
ীব	-945
int	-946
own	-947
কের	-948
াতে	-949
েলে	-950
▁pr	-951
▁অস	-952
▁পৃ	-953
ific	-954
ries	-955
াড়া	-956
াসের	-957
▁app	-958
▁gre	-959
▁rec	-960
▁two	-961
▁উপর	-962
ন্ত্র	-963
▁cons	-964
▁long	-965
▁used	-966
▁যদিও	-967
▁countries	-968
aw	-969
uc	-970
মি	-971
শই	-972
িজ	-973
ীত	-974
▁-	-975
▁ঝ	-976
itt	-977
ple	-978
ros	-979
তিহ	-980
প্ত	-981
াসে	-982
▁bu	-983
▁ma	-984
▁আল	-985
▁টি	-986
ause	-987
cial	-988
রণের	-989
▁rem	-990
▁thr	-991
▁আগে	-992
▁ধরে	-993
▁নাম	-994
▁বর্	-995
▁লোক	-996
▁শহর	-997
গুলোর	-998
▁just	-999
▁যেতে	-1000
▁কারণে	-1001
▁যুক্ত	-1002
▁শিক্ষ	-1003
▁হওয়া	-1004
).	-1005
গত	-1006
নী	-1007
▁4	-1008
▁z	-1009
000	-1010
ell	-1011
ব্দ	-1012
িকা	-1013
▁সী	-1014
ible	-1015
king	-1016
ress	-1017
খ্যা	-1018
▁see	-1019
▁কেন	-1020
▁মনে	-1021
ating	-1022
ction	-1023
ities	-1024
▁howe	-1025
▁incl	-1026
▁show	-1027
▁very	-1028
▁প্রদ	-1029
▁intern	-1030
▁report	-1031
▁সম্পর্কে	-1032
wn	-1033
এর	-1034
তম	-1035
িড	-1036
ুক	-1037
ুত	-1038
gan	-1039
ins	-1040
ons	-1041
ন্ধ	-1042
বিধ	-1043
▁cr	-1044
angu	-1045
ener	-1046
ists	-1047
omet	-1048
pect	-1049
ক্ষে	-1050
ার্ক	-1051
েন্স	-1052
▁des	-1053
▁sur	-1054
▁কথা	-1055
▁খেল	-1056
▁নিউ	-1057
▁রাজ	-1058
▁সবচ	-1059
ষ্ট্র	-1060
▁char	-1061
▁stud	-1062
▁অঞ্চ	-1063
▁প্রক	-1064
গুলিতে	-1065
▁being	-1066
▁where	-1067
ল্যান্ড	-1068
▁however	-1069
▁ব্যক্তি	-1070
▁মাধ্যমে	-1071
▁সবচেয়ে	-1072
ib	-1073
pl	-1074
পর	-1075
িণ	-1076
hed	-1077
ren	-1078
ved	-1079
ঙ্ক	-1080
টার	-1081
ত্য	-1082
ন্ড	-1083
ম্ব	-1084
ষ্ক	-1085
ৃষ্	-1086
tain	-1087
ক্ষণ	-1088
চ্ছে	-1089
য়েক	-1090
ায়ী	-1091
▁bet	-1092
▁col	-1093
▁mon	-1094
▁way	-1095
▁পড়	-1096
▁বির	-1097
▁সমস	-1098
▁সাম	-1099
▁well	-1100
▁অনুম	-1101
▁গুরু	-1102
▁থাকা	-1103
▁langu	-1104
▁those	-1105
▁উত্তর	-1106
▁includ	-1107
▁সেখানে	-1108
▁through	-1109
▁প্রায়শই	-1110
we	-1111
জে	-1112
সা	-1113
োস	-1114
▁5	-1115
ric	-1116
sel	-1117
ন্ন	-1118
র্ড	-1119
ানা	-1120
ীরা	-1121
েছে	-1122
্টি	-1123
▁fo	-1124
▁jo	-1125
▁qu	-1126
▁মহ	-1127
▁শু	-1128
,000	-1129
ward	-1130
ার্থ	-1131
্যার	-1132
▁bas	-1133
▁hot	-1134
▁med	-1135
▁par	-1136
▁pol	-1137
▁চলে	-1138
▁চাল	-1139
▁দিন	-1140
▁ফির	-1141
▁যোগ	-1142
other	-1143
যুক্ত	-1144
▁make	-1145
▁অন্ত	-1146
▁মাইল	-1147
▁gener	-1148
▁small	-1149
▁water	-1150
▁কয়েক	-1151
▁সম্ভব	-1152
▁called	-1153
▁পরিবর্ত	-1154
▁সাধারণত	-1155
".	-1156
ey	-1157
ism	-1158
orn	-1159
ost	-1160
uro	-1161
ত্র	-1162
মিত	-1163
▁em	-1164
▁sy	-1165
▁আজ	-1166
▁আশ	-1167
▁খা	-1168
ines	-1169
ঙ্গে	-1170
িটার	-1171
ুদ্র	-1172
▁add	-1173
▁ass	-1174
▁eas	-1175
▁fam	-1176
▁lar	-1177
▁met	-1178
▁num	-1179
▁tem	-1180
▁আলা	-1181
▁তখন	-1182
cient	-1183
ually	-1184
▁back	-1185
▁both	-1186
▁city	-1187
▁poss	-1188
▁prot	-1189
▁ওয়ে	-1190
▁কেবল	-1191
ড়িয়ে	-1192
▁visit	-1193
▁years	-1194
▁বিমান	-1195
▁যুদ্ধ	-1196
▁around	-1197
▁should	-1198
▁স্থানীয়	-1199
co	-1200
te	-1201
গা	-1202
রী	-1203
িখ	-1204
িভ	-1205
ূর	-1206
▁6	-1207
▁9	-1208
▁i	-1209
ick	-1210
led	-1211
les	-1212
ned	-1213
ঠিক	-1214
েশন	-1215
্যক	-1216
▁bl	-1217
▁লা	-1218
ange	-1219
ason	-1220
ross	-1221
ving	-1222
▁day	-1223
▁leg	-1224
▁min	-1225
▁ste	-1226
▁tur	-1227
▁ইউর	-1228
▁এসে	-1229
▁নয়	-1230
▁নেই	-1231
▁পৃথ	-1232
▁ভার	-1233
▁শেষ	-1234
▁সর্	-1235
ative	-1236
পূর্ণ	-1237
ৃষ্টি	-1238
▁dist	-1239
▁lear	-1240
▁made	-1241
▁prov	-1242
▁উচিত	-1243
▁ব্যব	-1244
▁যারা	-1245
▁again	-1246
▁organ	-1247
▁আলাদা	-1248
▁দ্বীপ	-1249
▁partic	-1250
▁আপনাকে	-1251
▁because	-1252
),	-1253
জা	-1254
রফ	-1255
েস	-1256
▁8	-1257
ath	-1258
ets	-1259
iss	-1260
the	-1261
ূলক	-1262
োয়	-1263
▁10	-1264
▁ed	-1265
▁উৎ	-1266
▁গঠ	-1267
▁চে	-1268
▁পি	-1269
▁বৈ	-1270
fore	-1271
ices	-1272
imes	-1273
ার্ড	-1274
িত্র	-1275
▁201	-1276
▁cap	-1277
▁ext	-1278
▁mil	-1279
▁run	-1280
▁অর্	-1281
▁আইন	-1282
▁কখন	-1283
▁বাস	-1284
urope	-1285
দিষ্ট	-1286
মাদের	-1287
▁cult	-1288
▁such	-1289
▁then	-1290
▁করবে	-1291
▁প্রশ	-1292
illion	-1293
▁trans	-1294
▁ইউরোপ	-1295
▁থাকার	-1296
▁বাইরে	-1297
▁europe	-1298
▁island	-1299
▁আক্রমণ	-1300
▁দক্ষিণ	-1301
ds	-1302
gy	-1303
ps	-1304
ফল	-1305
বো	-1306
লি	-1307
হণ	-1308
"""	-1309
eng	-1310
ful	-1311
lic	-1312
low	-1313
ury	-1314
তুন	-1315
থবা	-1316
নার	-1317
বরা	-1318
বিদ	-1319
লেখ	-1320
্বে	-1321
▁(1	-1322
▁ac	-1323
▁ob	-1324
▁ঘো	-1325
▁জু	-1326
▁দর	-1327
▁দশ	-1328
ages	-1329
cess	-1330
hern	-1331
peri	-1332
vern	-1333
বরাহ	-1334
▁bre	-1335
▁ele	-1336
▁nor	-1337
▁tri	-1338
▁use	-1339
▁পাশ	-1340
▁বাত	-1341
▁বার	-1342
▁মিল	-1343
জ্ঞান	-1344
▁hand	-1345
▁land	-1346
▁last	-1347
▁pass	-1348
▁play	-1349
▁pres	-1350
▁serv	-1351
▁sign	-1352
▁what	-1353
▁wind	-1354
▁জায়	-1355
▁তুলন	-1356
▁নতুন	-1357
▁পূর্	-1358
▁বাড়	-1359
▁ভাষা	-1360
ার্কিন	-1361
▁light	-1362
▁local	-1363
▁গাড়ি	-1364
▁ছিলেন	-1365
▁নিজের	-1366
▁সংস্ক	-1367
▁সমস্ত	-1368
▁number	-1369
▁আমাদের	-1370
▁পরিচিত	-1371
▁সংস্থা	-1372
▁সম্ভাব	-1373
▁another	-1374
▁without	-1375
▁পর্যন্ত	-1376
▁নির্দিষ্ট	-1377
াছ	-1378
োধ	-1379
োভ	-1380
ily	-1381
its	-1382
ral	-1383
চ্ছ	-1384
ণ্ড	-1385
র্শ	-1386
▁av	-1387
▁mu	-1388
▁অফ	-1389
▁আধ	-1390
▁উদ	-1391
▁উল	-1392
▁নী	-1393
▁বু	-1394
▁হা	-1395
ince	-1396
ween	-1397
ত্যা	-1398
র্ষণ	-1399
ালের	-1400
াহাজ	-1401
িনিস	-1402
ীর্ঘ	-1403
▁cam	-1404
▁dec	-1405
▁est	-1406
▁few	-1407
▁low	-1408
▁pop	-1409
▁pri	-1410
▁win	-1411
▁তাই	-1412
▁ফ্ল	-1413
▁বরফ	-1414
▁বলা	-1415
▁বাহ	-1416
▁শীত	-1417
▁সহজ	-1418
▁হাজ	-1419
erson	-1420
মাত্র	-1421
িকল্প	-1422
▁down	-1423
▁germ	-1424
▁hist	-1425
▁home	-1426
▁stay	-1427
▁work	-1428
▁ঘন্ট	-1429
▁ফিরে	-1430
▁ভাবে	-1431
▁শব্দ	-1432
ildren	-1433
য়েন্ট	-1434
▁allow	-1435
▁earth	-1436
▁secon	-1437
▁state	-1438
▁today	-1439
▁উপায়	-1440
▁গিয়ে	-1441
▁চেয়ে	-1442
▁থাকতে	-1443
▁দীর্ঘ	-1444
▁ধরণের	-1445
▁পৃথিব	-1446
▁ব্যাপ	-1447
▁govern	-1448
▁অনুষ্ঠ	-1449
▁সমস্যা	-1450
▁স্থানে	-1451
▁between	-1452
▁মার্কিন	-1453
▁যাওয়ার	-1454
▁যুক্তরা	-1455
▁বলেছিলেন	-1456
."	-1457
ft	-1458
পু	-1459
ীল	-1460
োঁ	-1461
els	-1462
ene	-1463
hes	-1464
ilt	-1465
ise	-1466
বাস	-1467
র্ট	-1468
াইন	-1469
▁16	-1470
▁ca	-1471
▁ty	-1472
▁এল	-1473
▁গত	-1474
▁চল	-1475
▁জল	-1476
▁বহ	-1477
▁ভূ	-1478
akes	-1479
ants	-1480
line	-1481
self	-1482
ural	-1483
ক্ষম	-1484
র্শন	-1485
শ্যই	-1486
াদের	-1487
▁art	-1488
▁aut	-1489
▁che	-1490
▁cre	-1491
▁dep	-1492
▁end	-1493
▁fin	-1494
▁fun	-1495
▁hel	-1496
▁inc	-1497
▁ins	-1498
▁lim	-1499
▁now	-1500
▁sub	-1501
▁try	-1502
▁uni	-1503
▁খুঁ	-1504
▁গতি	-1505
▁শুধ	-1506
▁সাহ	-1507
ident	-1508
িতীয়	-1509
▁high	-1510
▁main	-1511
▁phot	-1512
▁plan	-1513
▁কর্ম	-1514
▁গ্রী	-1515
▁জার্	-1516
▁তাঁর	-1517
▁দেখা	-1518
▁ধর্ম	-1519
▁নামে	-1520
▁বন্ধ	-1521
▁ভালো	-1522
▁every	-1523
▁going	-1524
▁place	-1525
▁requi	-1526
▁since	-1527
▁somet	-1528
▁start	-1529
▁দরকার	-1530
▁সঙ্গে	-1531
▁হচ্ছে	-1532
▁before	-1533
▁experi	-1534
▁remain	-1535
▁second	-1536
▁অন্তর্	-1537
▁দেওয়া	-1538
▁পাওয়া	-1539
▁প্রভাব	-1540
▁সম্ভবত	-1541
▁সরবরাহ	-1542
▁million	-1543
▁require	-1544
▁গুরুত্ব	-1545
▁জার্মান	-1546
▁children	-1547
▁national	-1548
▁দ্বিতীয়	-1549
mm	-1550
mp	-1551
xt	-1552
ys	-1553
ঁচ	-1554
গর	-1555
দন	-1556
ূপ	-1557
ৌঁ	-1558
ank	-1559
any	-1560
cer	-1561
row	-1562
ual	-1563
way	-1564
ঘাত	-1565
ীতে	-1566
ৃতি	-1567
েবে	-1568
▁ap	-1569
▁op	-1570
▁ta	-1571
▁বৃ	-1572
▁শত	-1573
blem	-1574
cent	-1575
ints	-1576
ness	-1577
vent	-1578
ক্ষা	-1579
ষ্টা	-1580
ান্স	-1581
িক্ত	-1582
্যাক	-1583
▁ann	-1584
▁blo	-1585
▁imp	-1586
▁sch	-1587
▁sea	-1588
▁sim	-1589
▁জীব	-1590
▁পান	-1591
▁পুন	-1592
▁পৌঁ	-1593
▁বড়	-1594
▁বিপ	-1595
▁ভিত	-1596
▁রোগ	-1597
▁শিশ	-1598
aking	-1599
ution	-1600
velop	-1601
ন্দির	-1602
ষ্কার	-1603
ুদ্ধে	-1604
▁good	-1605
▁help	-1606
▁lens	-1607
▁much	-1608
▁must	-1609
▁nort	-1610
▁rest	-1611
▁take	-1612
▁অতির	-1613
▁অথবা	-1614
▁ইতিহ	-1615
▁করুন	-1616
▁গেছে	-1617
▁দেশে	-1618
▁ধারণ	-1619
▁পড়ে	-1620
গুলিকে	-1621
▁const	-1622
▁found	-1623
▁known	-1624
▁north	-1625
▁still	-1626
▁three	-1627
▁ওয়েব	-1628
▁খাবার	-1629
▁জিনিস	-1630
▁দেখতে	-1631
▁পেয়ে	-1632
▁বছরের	-1633
▁ভিন্ন	-1634
▁মূল্য	-1635
▁রাখতে	-1636
▁লেন্স	-1637
▁হাজার	-1638
▁things	-1639
▁united	-1640
▁অবশ্যই	-1641
▁করেছেন	-1642
▁মন্দির	-1643
▁against	-1644
▁develop	-1645
▁problem	-1646
▁বিশ্বাস	-1647
▁possible	-1648
▁অতিরিক্ত	-1649
▁বিরুদ্ধে	-1650
20	-1651
du	-1652
to	-1653
নো	-1654
ভূ	-1655
্ঞ	-1656
▁ঐ	-1657
ced	-1658
jor	-1659
oms	-1660
ool	-1661
que	-1662
rit	-1663
ves	-1664
গের	-1665
ড়া	-1666
পাত	-1667
বিক	-1668
ব্য	-1669
মের	-1670
লার	-1671
স্ব	-1672
▁11	-1673
▁15	-1674
▁24	-1675
▁ri	-1676
▁আন	-1677
▁আফ	-1678
▁উভ	-1679
▁কঠ	-1680
▁দূ	-1681
▁পদ	-1682
▁মে	-1683
▁শে	-1684
ects	-1685
form	-1686
ined	-1687
ives	-1688
lymp	-1689
outh	-1690
ract	-1691
stem	-1692
।"""	-1693
কালে	-1694
টিকে	-1695
াক্ত	-1696
ান্ট	-1697
ার্ল	-1698
িন্দ	-1699
ৃতিক	-1700
েনের	-1701
্যাস	-1702
▁100	-1703
▁arm	-1704
▁bra	-1705
▁cor	-1706
▁due	-1707
▁ent	-1708
▁law	-1709
▁pur	-1710
▁sun	-1711
▁sup	-1712
▁val	-1713
▁অলি	-1714
▁আবি	-1715
▁এটা	-1716
▁চার	-1717
▁পুর	-1718
▁ফলে	-1719
▁ফ্র	-1720
▁মুখ	-1721
▁শতা	-1722
▁হোট	-1723
ather	-1724
ature	-1725
ccess	-1726
ected	-1727
ended	-1728
ently	-1729
ering	-1730
▁anim	-1731
▁book	-1732
▁fall	-1733
▁find	-1734
▁four	-1735
▁hour	-1736
▁ital	-1737
▁king	-1738
▁near	-1739
▁real	-1740
▁thin	-1741
▁অনুস	-1742
▁আমরা	-1743
▁আমের	-1744
▁কখনও	-1745
▁কোনো	-1746
▁খেলা	-1747
▁দিতে	-1748
▁শক্ত	-1749
lympic	-1750
though	-1751
িকভাবে	-1752
ুমাত্র	-1753
▁activ	-1754
▁becom	-1755
▁belie	-1756
▁night	-1757
▁south	-1758
▁using	-1759
▁এমনকি	-1760
▁জাহাজ	-1761
▁পারেন	-1762
▁প্রাচ	-1763
▁যাত্র	-1764
▁শক্তি	-1765
▁সরকার	-1766
▁সালের	-1767
ization	-1768
▁import	-1769
▁scient	-1770
▁states	-1771
▁system	-1772
▁temple	-1773
▁though	-1774
▁অভিজ্ঞ	-1775
▁অলিম্প	-1776
▁আকর্ষণ	-1777
▁চেষ্টা	-1778
▁পর্যটক	-1779
▁প্রকাশ	-1780
▁প্রধান	-1781
▁হিসেবে	-1782
▁olympic	-1783
▁tourist	-1784
▁usually	-1785
▁পয়েন্ট	-1786
▁মিলিয়ন	-1787
▁language	-1788
▁পরিবর্তন	-1789
▁সম্পূর্ণ	-1790
▁শুধুমাত্র	-1791
ah	-1792
ty	-1793
কা	-1794
ায	-1795
িউ	-1796
িফ	-1797
িৎ	-1798
ুখ	-1799
▁ঢ	-1800
air	-1801
anc	-1802
ier	-1803
ife	-1804
ina	-1805
leg	-1806
mar	-1807
ody	-1808
ori	-1809
wor	-1810
চনা	-1811
চের	-1812
থ্য	-1813
দান	-1814
নিক	-1815
ভ্য	-1816
রাধ	-1817
্কে	-1818
্যু	-1819
▁18	-1820
▁dr	-1821
▁es	-1822
▁km	-1823
▁ru	-1824
▁sl	-1825
▁কী	-1826
▁গু	-1827
▁নৌ	-1828
ases	-1829
gest	-1830
here	-1831
hing	-1832
olog	-1833
read	-1834
used	-1835
ways	-1836
টিতে	-1837
বিধা	-1838
ায্য	-1839
ারনে	-1840
ার্ভ	-1841
িলোম	-1842
ুয়ে	-1843
্দ্র	-1844
্রুত	-1845
▁cop	-1846
▁eng	-1847
▁fol	-1848
▁gra	-1849
▁pat	-1850
▁pub	-1851
▁var	-1852
▁জাত	-1853
▁টেল	-1854
▁ঠিক	-1855
▁তিন	-1856
▁বয়	-1857
▁বাল	-1858
▁বিল	-1859
▁মাল	-1860
▁যান	-1861
▁সেন	-1862
ility	-1863
ledge	-1864
ption	-1865
ভুক্ত	-1866
▁area	-1867
▁brit	-1868
▁conn	-1869
▁head	-1870
▁host	-1871
▁inst	-1872
▁same	-1873
▁ship	-1874
▁tele	-1875
▁ইন্ট	-1876
▁উচ্চ	-1877
▁কঠিন	-1878
▁কর্ত	-1879
▁জলের	-1880
▁পরিস	-1881
▁বর্ণ	-1882
▁শিশু	-1883
ically	-1884
itions	-1885
প্রিয়	-1886
▁great	-1887
▁later	-1888
▁major	-1889
▁means	-1890
▁month	-1891
▁offer	-1892
▁offic	-1893
▁relig	-1894
▁stand	-1895
▁দ্রুত	-1896
▁প্রাণ	-1897
▁সহায়	-1898
itional	-1899
▁commun	-1900
▁comple	-1901
▁inform	-1902
▁points	-1903
▁অনুমতি	-1904
▁উদ্দেশ	-1905
▁কার্যক	-1906
▁জাতীয়	-1907
▁প্রবেশ	-1908
▁সমুদ্র	-1909
▁century	-1910
▁history	-1911
▁প্রাচীন	-1912
▁ভ্রমণের	-1913
▁মানুষের	-1914
▁সাহায্য	-1915
▁although	-1916
▁internet	-1917
▁ইন্টারনে	-1918
▁জনপ্রিয়	-1919
)।	-1920
ek	-1921
ix	-1922
কল	-1923
গে	-1924
তু	-1925
বু	-1926
ষে	-1927
সব	-1928
সম	-1929
াগ	-1930
াট	-1931
▁'	-1932
▁A	-1933
ane	-1934
aun	-1935
aut	-1936
cks	-1937
fic	-1938
ges	-1939
hen	-1940
hip	-1941
hor	-1942
iet	-1943
par	-1944
ven	-1945
vis	-1946
জার	-1947
টের	-1948
তাল	-1949
দিন	-1950
পার	-1951
পাশ	-1952
রাস	-1953
র্ক	-1954
শ্ব	-1955
সের	-1956
াপন	-1957
িতি	-1958
িনী	-1959
ুরি	-1960
্যে	-1961
▁il	-1962
▁তদ	-1963
▁দৈ	-1964
▁মৌ	-1965
▁১৯	-1966
ides	-1967
peci	-1968
rest	-1969
ruct	-1970
ting	-1971
ured	-1972
বদ্ধ	-1973
াধীন	-1974
ারেল	-1975
িকান	-1976
িকের	-1977
িল্প	-1978
ুলিশ	-1979
েট্র	-1980
ৈতিক	-1981
োর্ট	-1982
▁"""	-1983
▁bar	-1984
▁beg	-1985
▁cur	-1986
▁det	-1987
▁dri	-1988
▁mat	-1989
▁say	-1990
▁ser	-1991
▁set	-1992
▁top	-1993
▁vol	-1994
▁একই	-1995
▁ক্ল	-1996
▁বেল	-1997
▁রিপ	-1998
▁সংর	-1999
▁হলে	-2000
anish	-2001
conom	-2002
ished	-2003
iving	-2004
ounds	-2005
খ্যাত	-2006
পক্ষে	-2007
পুঞ্জ	-2008
বর্তী	-2009
যায়ী	-2010
▁able	-2011
▁cell	-2012
▁cour	-2013
▁each	-2014
▁gain	-2015
▁grou	-2016
▁look	-2017
▁orig	-2018
▁perm	-2019
▁rout	-2020
▁summ	-2021
▁trad	-2022
▁উন্ন	-2023
▁এখনও	-2024
▁এলাক	-2025
▁ঐতিহ	-2026
▁করছে	-2027
▁কাছে	-2028
▁ঘোষণ	-2029
▁নিউজ	-2030
▁বিবে	-2031
▁যিনি	-2032
ousand	-2033
▁along	-2034
▁areas	-2035
▁bring	-2036
▁build	-2037
▁least	-2038
▁miles	-2039
▁right	-2040
▁অর্জন	-2041
▁এয়ার	-2042
▁জুড়ে	-2043
▁দেশের	-2044
▁নিশ্চ	-2045
▁বিচার	-2046
▁ভিত্ত	-2047
▁attack	-2048
▁econom	-2049
▁especi	-2050
▁events	-2051
▁follow	-2052
▁person	-2053
▁region	-2054
▁school	-2055
▁season	-2056
▁পরিবার	-2057
▁প্রস্ত	-2058
▁যাওয়া	-2059
▁সময়ের	-2060
িলোমিটার	-2061
▁culture	-2062
▁limited	-2063
▁popular	-2064
▁protest	-2065
▁special	-2066
▁success	-2067
▁support	-2068
▁অবস্থিত	-2069
▁কেন্দ্র	-2070
▁তুলনায়	-2071
▁পরিকল্প	-2072
▁বিজ্ঞান	-2073
▁সহায়তা	-2074
▁european	-2075
▁northern	-2076
▁reported	-2077
▁thousand	-2078
▁অবস্থায়	-2079
▁ইউরোপীয়	-2080
▁সম্ভাব্য	-2081
▁knowledge	-2082
▁especially	-2083
▁experience	-2084
▁দ্বীপপুঞ্জ	-2085
▁অন্তর্ভুক্ত	-2086
▁প্রয়োজনীয়	-2087
▁গুরুত্বপূর্ণ	-2088
▁যুক্তরাষ্ট্র	-2089
su	-2090
কো	-2091
জি	-2092
ধি	-2093
রম	-2094
শা	-2095
শি	-2096
িহ	-2097
োব	-2098
্ফ	-2099
ave	-2100
get	-2101
rop	-2102
জাত	-2103
ডের	-2104
পরে	-2105
বংস	-2106
ভার	-2107
লেক	-2108
শীল	-2109
স্প	-2110
হলে	-2111
ানি	-2112
ারো	-2113
ালা	-2114
ুলে	-2115
েনে	-2116
্তা	-2117
্লা	-2118
▁el	-2119
▁sw	-2120
▁ডি	-2121
▁ধর	-2122
▁ধ্	-2123
▁পথ	-2124
▁মত	-2125
▁মর	-2126
▁সি	-2127
ench	-2128
ergy	-2129
eric	-2130
ites	-2131
ivil	-2132
osed	-2133
ড়ার	-2134
িটিশ	-2135
িনীর	-2136
িহ্ন	-2137
ুনিক	-2138
্লেখ	-2139
▁199	-2140
▁adv	-2141
▁aff	-2142
▁bro	-2143
▁fil	-2144
▁jud	-2145
▁sho	-2146
▁vir	-2147
▁আটক	-2148
▁ইউন	-2149
▁ওয়	-2150
▁ঘটন	-2151
▁জাপ	-2152
▁জ্ঞ	-2153
▁ঝড়	-2154
▁তুম	-2155
▁নির	-2156
▁ফোন	-2157
▁বিস	-2158
▁বোঝ	-2159
▁যথে	-2160
▁রান	-2161
▁সাং	-2162
▁সূর	-2163
▁স্ত	-2164
▁হার	-2165
aland	-2166
ances	-2167
ately	-2168
stand	-2169
যোগ্য	-2170
▁best	-2171
▁camp	-2172
▁cost	-2173
▁dest	-2174
▁dire	-2175
▁fire	-2176
▁give	-2177
▁lead	-2178
▁less	-2179
▁mark	-2180
▁news	-2181
▁norm	-2182
▁open	-2183
▁rece	-2184
▁spok	-2185
▁star	-2186
▁turk	-2187
▁webs	-2188
▁আঘাত	-2189
▁আন্ত	-2190
▁আফ্র	-2191
▁ইতাল	-2192
▁উপরে	-2193
▁উভয়	-2194
▁তাকে	-2195
▁দূরে	-2196
▁পদ্ধ	-2197
▁পশ্চ	-2198
▁পৌঁছ	-2199
▁বয়স	-2200
▁বর্ত	-2201
▁বলতে	-2202
▁ভারত	-2203
▁যেমন	-2204
▁সমাধ	-2205
ission	-2206
ording	-2207
ration	-2208
্রান্ত	-2209
▁afric	-2210
▁appro	-2211
▁civil	-2212
▁class	-2213
▁could	-2214
▁cross	-2215
▁green	-2216
▁large	-2217
▁might	-2218
▁moder	-2219
▁order	-2220
▁অঞ্চল	-2221
▁কর্তৃ	-2222
▁ধারণা	-2223
▁ধ্বংস	-2224
▁পুলিশ	-2225
▁বিভাগ	-2226
▁মাত্র	-2227
▁মেট্র	-2228
▁হয়নি	-2229
▁americ	-2230
▁become	-2231
▁common	-2232
▁energy	-2233
▁enough	-2234
▁french	-2235
▁invest	-2236
▁longer	-2237
▁police	-2238
▁অভিযোগ	-2239
▁আধুনিক	-2240
▁উল্লেখ	-2241
▁ওয়েবস	-2242
▁নির্বা	-2243
▁পর্যটন	-2244
▁প্রক্র	-2245
▁বলেছেন	-2246
▁বিশেষত	-2247
▁যথেষ্ট	-2248
▁যেগুলো	-2249
▁স্টেশন	-2250
িল্যান্ড	-2251
▁animals	-2252
▁british	-2253
▁islands	-2254
▁regular	-2255
▁running	-2256
▁station	-2257
▁নিয়মিত	-2258
▁প্রায়ই	-2259
▁ব্রিটিশ	-2260
▁রাষ্ট্র	-2261
▁problems	-2262
▁অনুষ্ঠান	-2263
▁আবিষ্কার	-2264
▁প্রতিষ্ঠ	-2265
▁ব্যবস্থা	-2266
▁including	-2267
▁ইন্টারনেট	-2268
▁particular	-2269
▁understand	-2270
▁international	-2271
ai	-2272
bo	-2273
cu	-2274
ns	-2275
ux	-2276
গো	-2277
ঠে	-2278
াফ	-2279
োজ	-2280
্ধ	-2281
▁7	-2282
aim	-2283
ash	-2284
aur	-2285
avy	-2286
com	-2287
ged	-2288
ger	-2289
ize	-2290
ney	-2291
ood	-2292
ots	-2293
til	-2294
tur	-2295
uss	-2296
চাল	-2297
জনক	-2298
দ্ব	-2299
ধিক	-2300
ন্ম	-2301
ন্স	-2302
পের	-2303
লিক	-2304
শেষ	-2305
সুম	-2306
াইড	-2307
ালী	-2308
০০০	-2309
▁14	-2310
▁gu	-2311
▁ze	-2312
▁আচ	-2313
▁কল	-2314
▁খে	-2315
▁ঘট	-2316
▁ঘন	-2317
▁জা	-2318
▁তর	-2319
▁দৃ	-2320
▁ভে	-2321
▁রো	-2322
▁সৈ	-2323
ably	-2324
alth	-2325
ames	-2326
apan	-2327
ards	-2328
ared	-2329
ased	-2330
aves	-2331
ower	-2332
rong	-2333
উন্ড	-2334
কদের	-2335
পূর্	-2336
মূলক	-2337
ম্বর	-2338
ান্ড	-2339
ারের	-2340
াস্ট	-2341
িকিৎ	-2342
ৃতির	-2343
▁195	-2344
▁197	-2345
▁bal	-2346
▁beh	-2347
▁foc	-2348
▁fre	-2349
▁hum	-2350
▁ice	-2351
▁imm	-2352
▁mem	-2353
▁net	-2354
▁obs	-2355
▁old	-2356
▁own	-2357
▁pla	-2358
▁rep	-2359
▁sol	-2360
▁tax	-2361
▁tom	-2362
▁অতি	-2363
▁আয়	-2364
▁গঠন	-2365
▁ছবি	-2366
▁ড্র	-2367
▁পের	-2368
▁বিক	-2369
▁বিদ	-2370
▁মৃত	-2371
▁রাস	-2372
▁শিখ	-2373
▁হাত	-2374
anger	-2375
thing	-2376
vious	-2377
কালীন	-2378
গ্রহণ	-2379
প্তাহ	-2380
স্ট্র	-2381
ামূলক	-2382
ায়ের	-2383
▁food	-2384
▁fore	-2385
▁meet	-2386
▁moon	-2387
▁past	-2388
▁read	-2389
▁snow	-2390
▁test	-2391
▁thir	-2392
▁একটা	-2393
▁কারা	-2394
▁কিমি	-2395
▁গেলে	-2396
▁তথ্য	-2397
▁তুমি	-2398
▁প্রচ	-2399
▁ফরাস	-2400
▁মারা	-2401
▁মার্	-2402
▁ম্যা	-2403
▁যাতে	-2404
▁লক্ষ	-2405
▁শীর্	-2406
▁সত্ত	-2407
▁সম্ম	-2408
▁সীমা	-2409
▁স্বা	-2410
ention	-2411
ertain	-2412
গুলোতে	-2413
িকারের	-2414
িয়ায়	-2415
▁based	-2416
▁disco	-2417
▁event	-2418
▁famil	-2419
▁invol	-2420
▁japan	-2421
▁learn	-2422
▁legal	-2423
▁speed	-2424
▁storm	-2425
▁times	-2426
▁অ্যাল	-2427
▁ক্ষতি	-2428
▁ঘোষণা	-2429
▁চিত্র	-2430
▁চিহ্ন	-2431
▁জ্ঞান	-2432
▁তদন্ত	-2433
▁তাহলে	-2434
▁নম্বর	-2435
▁নির্ভ	-2436
▁পূর্ব	-2437
▁ভাষার	-2438
▁শিল্প	-2439
▁সক্ষম	-2440
বিদ্যাল	-2441
▁across	-2442
▁author	-2443
▁change	-2444
▁design	-2445
▁direct	-2446
▁expect	-2447
▁flight	-2448
▁lenses	-2449
▁origin	-2450
▁summer	-2451
▁winter	-2452
▁within	-2453
▁ইতিহাস	-2454
▁জায়গা	-2455
▁পদ্ধতি	-2456
▁general	-2457
▁include	-2458
▁process	-2459
▁zealand	-2460
▁নিশ্চিত	-2461
▁পাওয়ার	-2462
▁ফ্রান্স	-2463
▁বিখ্যাত	-2464
▁বিষয়টি	-2465
▁সংরক্ষণ	-2466
▁স্বাধীন	-2467
▁activity	-2468
▁investig	-2469
▁requires	-2470
▁প্রতিবাদ	-2471
▁important	-2472
▁languages	-2473
▁sometimes	-2474
▁নিয়ন্ত্র	-2475
▁ব্যবহারের	-2476
▁শিক্ষার্থ	-2477
▁government	-2478
▁scientists	-2479
▁information	-2480
",	-2481
be	-2482
br	-2483
ee	-2484
me	-2485
উন	-2486
গঠ	-2487
ডো	-2488
ষী	-2489
সং	-2490
ুই	-2491
ুজ	-2492
ুট	-2493
োড	-2494
▁৩	-2495
▁৪	-2496
▁৫	-2497
ado	-2498
aps	-2499
ats	-2500
att	-2501
bal	-2502
cul	-2503
eep	-2504
gen	-2505
iqu	-2506
ond	-2507
ops	-2508
uel	-2509
জীব	-2510
ঝতে	-2511
টাই	-2512
ড়ি	-2513
ত্ম	-2514
বান	-2515
য়ী	-2516
লাই	-2517
সার	-2518
স্য	-2519
হোক	-2520
াশি	-2521
িপি	-2522
িরা	-2523
োতে	-2524
্বর	-2525
▁1.	-2526
▁17	-2527
▁2,	-2528
▁35	-2529
▁90	-2530
▁ge	-2531
▁mi	-2532
▁mm	-2533
▁ইং	-2534
▁এগ	-2535
▁দা	-2536
▁নদ	-2537
▁পে	-2538
▁বজ	-2539
▁বস	-2540
▁মি	-2541
▁লি	-2542
▁সদ	-2543
""।"	-2544
anks	-2545
anta	-2546
face	-2547
hest	-2548
ider	-2549
ilar	-2550
ison	-2551
iter	-2552
ivid	-2553
ized	-2554
lish	-2555
omin	-2556
reek	-2557
side	-2558
soci	-2559
ওয়ে	-2560
গায়	-2561
তর্ক	-2562
পক্ষ	-2563
মাণু	-2564
াকার	-2565
াকাশ	-2566
াপ্ত	-2567
ার্ন	-2568
ার্স	-2569
াসরি	-2570
াস্থ	-2571
িভিশ	-2572
ীনের	-2573
োমার	-2574
্টার	-2575
্যাট	-2576
▁(14	-2577
▁ant	-2578
▁atl	-2579
▁bir	-2580
▁bul	-2581
▁bus	-2582
▁del	-2583
▁did	-2584
▁eff	-2585
▁him	-2586
▁hur	-2587
▁joh	-2588
▁lat	-2589
▁our	-2590
▁rom	-2591
▁saf	-2592
▁sky	-2593
▁squ	-2594
▁tre	-2595
▁wal	-2596
▁wat	-2597
▁won	-2598
▁আশা	-2599
▁উৎস	-2600
▁কাছ	-2601
▁কোষ	-2602
▁গরম	-2603
▁গোল	-2604
▁ঘটে	-2605
▁ঘুর	-2606
▁চান	-2607
▁জড়	-2608
▁তেল	-2609
▁দাঁ	-2610
▁পরী	-2611
▁পাঠ	-2612
▁পাত	-2613
▁পাল	-2614
▁বহন	-2615
▁ভূম	-2616
▁মাঝ	-2617
▁মিশ	-2618
▁যাই	-2619
▁রেড	-2620
▁শেখ	-2621
▁হ্র	-2622
ength	-2623
ented	-2624
epend	-2625
ially	-2626
ified	-2627
istan	-2628
ister	-2629
itive	-2630
ittle	-2631
lines	-2632
veral	-2633
ক্ষিত	-2634
ন্ধান	-2635
র্জাত	-2636
াড়াও	-2637
াপাশি	-2638
িকায়	-2639
িশালী	-2640
▁2009	-2641
▁body	-2642
▁care	-2643
▁does	-2644
▁fill	-2645
▁name	-2646
▁phys	-2647
▁priv	-2648
▁sent	-2649
▁took	-2650
▁type	-2651
▁vict	-2652
▁week	-2653
▁west	-2654
▁অক্ষ	-2655
▁অপরি	-2656
▁কিনা	-2657
▁ক্ষম	-2658
▁জানা	-2659
▁দুটি	-2660
▁দেখে	-2661
▁নীচে	-2662
▁ফেলে	-2663
▁মাসে	-2664
▁যাবে	-2665
▁যেটি	-2666
▁শ্রে	-2667
▁সেনা	-2668
vision	-2669
ওয়ায়	-2670
্যাঙ্ক	-2671
▁break	-2672
▁china	-2673
▁elect	-2674
▁illeg	-2675
▁inter	-2676
▁makes	-2677
▁march	-2678
▁power	-2679
▁retur	-2680
▁space	-2681
▁until	-2682
▁অনুভব	-2683
▁চিকিৎ	-2684
▁থাকেন	-2685
▁দুর্গ	-2686
▁প্রাক	-2687
▁বাস্ত	-2688
▁বিদেশ	-2689
▁বুঝতে	-2690
▁শীর্ষ	-2691
▁সংবাদ	-2692
▁সীমান	-2693
▁হোটেল	-2694
ailable	-2695
itution	-2696
ountain	-2697
versity	-2698
▁always	-2699
▁associ	-2700
▁concer	-2701
▁ground	-2702
▁indian	-2703
▁modern	-2704
▁nation	-2705
▁normal	-2706
▁places	-2707
▁public	-2708
▁record	-2709
▁toward	-2710
▁অঞ্চলে	-2711
▁অন্যতম	-2712
▁ঐতিহ্য	-2713
▁কিছুটা	-2714
▁গ্রীষ্	-2715
▁নির্ভর	-2716
▁নেওয়া	-2717
▁পরমাণু	-2718
▁পরিচাল	-2719
▁প্রদান	-2720
▁বিষয়ে	-2721
▁ভাষায়	-2722
▁সংখ্যা	-2723
▁সপ্তাহ	-2724
▁সরাসরি	-2725
▁সুবিধা	-2726
▁central	-2727
▁certain	-2728
▁company	-2729
▁foreign	-2730
▁individ	-2731
▁several	-2732
▁similar	-2733
▁spanish	-2734
▁started	-2735
▁অবস্থান	-2736
▁কয়েকটি	-2737
▁ক্যাম্প	-2738
▁টেলিভিশ	-2739
▁প্রতিটি	-2740
▁প্রতিবে	-2741
▁বাসিন্দ	-2742
▁বিশ্বের	-2743
▁যুদ্ধের	-2744
▁লেন্সের	-2745
▁families	-2746
▁signific	-2747
▁students	-2748
▁yourself	-2749
▁অনুযায়ী	-2750
▁পাশাপাশি	-2751
▁ব্যাপারে	-2752
▁সীমাবদ্ধ	-2753
▁according	-2754
▁আন্তর্জাত	-2755
▁ওয়েবসাইট	-2756
▁কর্তৃপক্ষ	-2757
▁কিলোমিটার	-2758
▁কেবলমাত্র	-2759
▁ব্যক্তিগত	-2760
▁শক্তিশালী	-2761
▁university	-2762
▁প্রক্রিয়া	-2763
▁নিউজিল্যান্ড	-2764
▁বিশ্ববিদ্যাল	-2765
,"	-2766
30	-2767
cy	-2768
la	-2769
oy	-2770
ya	-2771
জু	-2772
ণত	-2773
তর	-2774
তল	-2775
দে	-2776
ভে	-2777
ৈধ	-2778
▁৯	-2779
▁–	-2780
ada	-2781
cop	-2782
enz	-2783
hic	-2784
ium	-2785
lin	-2786
man	-2787
ner	-2788
ove	-2789
ram	-2790
rib	-2791
sue	-2792
ude	-2793
ull	-2794
une	-2795
yal	-2796
কটি	-2797
কিট	-2798
খান	-2799
ণের	-2800
ধার	-2801
বহা	-2802
রিক	-2803
রূপ	-2804
শিপ	-2805
হীন	-2806
াছি	-2807
ীনে	-2808
▁au	-2809
▁ce	-2810
▁ho	-2811
▁ve	-2812
▁অক	-2813
▁আট	-2814
▁ইন	-2815
▁উঠ	-2816
▁এত	-2817
▁গো	-2818
▁ডা	-2819
▁তে	-2820
▁নজ	-2821
▁যত	-2822
▁রক	-2823
▁সূ	-2824
▁২০	-2825
aken	-2826
amed	-2827
arch	-2828
atic	-2829
cean	-2830
ends	-2831
ered	-2832
erve	-2833
ighb	-2834
ills	-2835
ital	-2836
lect	-2837
ogra	-2838
omer	-2839
ones	-2840
rict	-2841
rowd	-2842
rown	-2843
ters	-2844
ures	-2845
utes	-2846
year	-2847
জনের	-2848
দ্ধি	-2849
ন্দর	-2850
মানে	-2851
সম্প	-2852
হত্ত	-2853
াকিস	-2854
ামের	-2855
াযোগ	-2856
ারাপ	-2857
িডিও	-2858
িত্ব	-2859
্টিক	-2860
্ফোর	-2861
্যিক	-2862
্যুর	-2863
▁11:	-2864
▁dam	-2865
▁don	-2866
▁fac	-2867
▁fle	-2868
▁fly	-2869
▁fri	-2870
▁glo	-2871
▁har	-2872
▁her	-2873
▁hig	-2874
▁kil	-2875
▁mot	-2876
▁nat	-2877
▁obj	-2878
▁oil	-2879
▁pak	-2880
▁put	-2881
▁san	-2882
▁ten	-2883
▁tut	-2884
▁আসে	-2885
▁উৎপ	-2886
▁ওপর	-2887
▁কেউ	-2888
▁গাছ	-2889
▁গেম	-2890
▁চাঁ	-2891
▁তাল	-2892
▁দিক	-2893
▁দুই	-2894
▁নেট	-2895
▁পর্	-2896
▁পিছ	-2897
▁বিজ	-2898
▁বৈধ	-2899
▁ব্ল	-2900
▁ভয়	-2901
▁ভিস	-2902
▁মাস	-2903
▁মিন	-2904
▁রেখ	-2905
▁সান	-2906
▁সাব	-2907
▁হাম	-2908
aunch	-2909
ences	-2910
ining	-2911
ports	-2912
uries	-2913
vered	-2914
where	-2915
চ্ছিল	-2916
পাতের	-2917
বাধিক	-2918
শিষ্ট	-2919
াকাছি	-2920
িয়াস	-2921
িয়েত	-2922
ুয়ার	-2923
েম্বর	-2924
▁army	-2925
▁arri	-2926
▁aust	-2927
▁belg	-2928
▁clim	-2929
▁comb	-2930
▁cond	-2931
▁curr	-2932
▁done	-2933
▁earl	-2934
▁educ	-2935
▁expl	-2936
▁fact	-2937
▁fair	-2938
▁film	-2939
▁fort	-2940
▁game	-2941
▁happ	-2942
▁held	-2943
▁hold	-2944
▁keep	-2945
▁lake	-2946
▁live	-2947
▁pain	-2948
▁russ	-2949
▁sour	-2950
▁sout	-2951
▁term	-2952
▁thre	-2953
▁town	-2954
▁vide	-2955
▁আকার	-2956
▁আকাশ	-2957
▁আচরণ	-2958
▁আবহা	-2959
▁আলোক	-2960
▁আসার	-2961
▁উপাদ	-2962
▁এটির	-2963
▁কানা	-2964
▁খুবই	-2965
▁গঠিত	-2966
▁গ্রহ	-2967
▁ছাড়	-2968
▁বর্গ	-2969
▁রাজা	-2970
▁সকাল	-2971
▁সর্ব	-2972
▁সস্ত	-2973
▁স্কে	-2974
▁হলেও	-2975
▁হ্যা	-2976
arding	-2977
ential	-2978
ficult	-2979
idered	-2980
inning	-2981
itable	-2982
lished	-2983
▁built	-2984
▁chang	-2985
▁check	-2986
▁claim	-2987
▁estab	-2988
▁extra	-2989
▁frequ	-2990
▁grand	-2991
▁greek	-2992
▁group	-2993
▁incre	-2994
▁level	-2995
▁metro	-2996
▁produ	-2997
▁quick	-2998
▁river	-2999
▁scene	-3000
▁short	-3001
▁speak	-3002
▁think	-3003
▁winds	-3004
▁words	-3005
▁অধীনে	-3006
▁অ্যান	-3007
▁অ্যাপ	-3008
▁উপস্থ	-3009
▁করবেন	-3010
▁কারাগ	-3011
▁ক্যান	-3012
▁ক্যার	-3013
▁খাড়া	-3014
▁খুঁজে	-3015
▁গ্রীক	-3016
▁জড়িত	-3017
▁তারিখ	-3018
▁দিনের	-3019
▁দেয়া	-3020
▁ধরনের	-3021
▁পরিণত	-3022
▁পৃষ্ঠ	-3023
▁বজায়	-3024
▁বাতাস	-3025
▁বাতিল	-3026
▁বাল্ব	-3027
▁বিশাল	-3028
▁ব্যাং	-3029
▁ভিডিও	-3030
▁মাসের	-3031
▁শতাংশ	-3032
▁সংযোগ	-3033
▁সময়ে	-3034
▁সমর্থ	-3035
▁সিস্ট	-3036
▁সুযোগ	-3037
▁সেন্ট	-3038
▁সৈন্য	-3039
▁স্ট্র	-3040
স্কৃতিক	-3041
স্ট্রেল	-3042
▁africa	-3043
▁announ	-3044
▁became	-3045
▁contro	-3046
▁course	-3047
▁danger	-3048
▁easily	-3049
▁famous	-3050
▁german	-3051
▁hotels	-3052
▁humans	-3053
▁likely	-3054
▁little	-3055
▁networ	-3056
▁obtain	-3057
▁proper	-3058
▁provid	-3059
▁reason	-3060
▁result	-3061
▁strong	-3062
▁transl	-3063
▁window	-3064
▁অবস্থা	-3065
▁পরিমাণ	-3066
▁প্রত্য	-3067
▁প্রমাণ	-3068
▁বৃহত্ত	-3069
▁ব্যক্ত	-3070
▁মহাকাশ	-3071
▁যাইহোক	-3072
▁লক্ষ্য	-3073
▁সম্প্র	-3074
ল্যান্ডে	-3075
▁airline	-3076
▁ancient	-3077
▁austral	-3078
▁becomes	-3079
▁economy	-3080
▁kilomet	-3081
▁located	-3082
▁outside	-3083
▁percent	-3084
▁perform	-3085
▁permits	-3086
▁service	-3087
▁surface	-3088
▁travell	-3089
▁website	-3090
▁কমপক্ষে	-3091
▁গ্রীষ্ম	-3092
▁ঘন্টায়	-3093
▁জানিয়ে	-3094
▁দেওয়ার	-3095
▁পড়েছিল	-3096
▁পরবর্তী	-3097
▁পৃথিবীর	-3098
▁বিস্ফোর	-3099
▁ব্যবহৃত	-3100
▁ভারতীয়	-3101
▁যোগাযোগ	-3102
▁সম্পর্ক	-3103
▁সূর্যের	-3104
▁স্বাভাব	-3105
ল্যান্ডের	-3106
▁airlines	-3107
▁approach	-3108
▁building	-3109
▁independ	-3110
▁learning	-3111
▁mountain	-3112
▁pakistan	-3113
▁particip	-3114
▁previous	-3115
▁services	-3116
▁অভিজ্ঞতা	-3117
▁অলিম্পিক	-3118
▁অস্ট্রেল	-3119
▁উদ্দেশ্য	-3120
▁কাছাকাছি	-3121
▁গিয়েছিল	-3122
▁জায়গায়	-3123
▁প্রতিযোগ	-3124
▁প্রদর্শন	-3125
▁সংস্কৃতি	-3126
▁সর্বাধিক	-3127
▁available	-3128
▁difficult	-3129
▁following	-3130
▁greenland	-3131
▁traveling	-3132
▁পরিকল্পনা	-3133
▁considered	-3134
▁television	-3135
▁সাংস্কৃতিক	-3136
▁significant	-3137
▁আন্তর্জাতিক	-3138
▁organization	-3139
▁requirements	-3140
,5	-3141
-1	-3142
2.	-3143
ae	-3144
by	-3145
lu	-3146
ne	-3147
sc	-3148
yd	-3149
ংখ	-3150
আই	-3151
এস	-3152
ঙে	-3153
ণু	-3154
বর	-3155
সহ	-3156
াড	-3157
াণ	-3158
োফ	-3159
▁।	-3160
▁ঠ	-3161
ags	-3162
ano	-3163
ape	-3164
app	-3165
emb	-3166
eth	-3167
ety	-3168
for	-3169
hab	-3170
ham	-3171
icy	-3172
iew	-3173
ify	-3174
iny	-3175
isk	-3176
isl	-3177
iti	-3178
joy	-3179
ley	-3180
oph	-3181
rel	-3182
roy	-3183
ume	-3184
ush	-3185
zil	-3186
করণ	-3187
কোন	-3188
গ্ন	-3189
ট্র	-3190
ঠাম	-3191
ডার	-3192
বিষ	-3193
ভোগ	-3194
ম্ন	-3195
র্ঘ	-3196
র্দ	-3197
র্ন	-3198
শোধ	-3199
সাম	-3200
হেত	-3201
াইক	-3202
াদন	-3203
ামী	-3204
ারি	-3205
িকর	-3206
িটে	-3207
িলি	-3208
ুকে	-3209
ুখি	-3210
ুতে	-3211
োটন	-3212
োদন	-3213
্বী	-3214
্মক	-3215
▁(3	-3216
▁21	-3217
▁30	-3218
▁ir	-3219
▁mr	-3220
▁my	-3221
▁অত	-3222
▁অভ	-3223
▁ইস	-3224
▁এজ	-3225
▁এড	-3226
▁ওই	-3227
▁ঘণ	-3228
▁চা	-3229
▁চূ	-3230
▁ছে	-3231
▁তো	-3232
▁পো	-3233
▁মন	-3234
▁লে	-3235
▁১৭	-3236
ares	-3237
chie	-3238
ense	-3239
enth	-3240
ffic	-3241
fort	-3242
ibly	-3243
ield	-3244
ival	-3245
ived	-3246
lear	-3247
life	-3248
ming	-3249
most	-3250
omen	-3251
ouse	-3252
uals	-3253
তিনি	-3254
ত্তি	-3255
থেকে	-3256
দর্শ	-3257
দিকে	-3258
নেডো	-3259
ন্দে	-3260
পাশে	-3261
ভূমি	-3262
য়াল	-3263
লাইন	-3264
ষেবা	-3265
সময়	-3266
স্তি	-3267
হাড়	-3268
হেতু	-3269
াজিল	-3270
ায়ন	-3271
ালার	-3272
িটের	-3273
োগ্র	-3274
্যাপ	-3275
্লাব	-3276
্লাস	-3277
▁ale	-3278
▁cal	-3279
▁cas	-3280
▁cou	-3281
▁eit	-3282
▁eth	-3283
▁far	-3284
▁gas	-3285
▁ham	-3286
▁hit	-3287
▁hun	-3288
▁ill	-3289
▁inj	-3290
▁mal	-3291
▁nuc	-3292
▁pal	-3293
▁pot	-3294
▁rad	-3295
▁ref	-3296
▁six	-3297
▁tar	-3298
▁typ	-3299
▁অসু	-3300
▁আইস	-3301
▁আটল	-3302
▁আমি	-3303
▁আরা	-3304
▁আরো	-3305
▁আসা	-3306
▁ইতি	-3307
▁ওজন	-3308
▁করি	-3309
▁খ্র	-3310
▁চলা	-3311
▁চিন	-3312
▁জুন	-3313
▁তুর	-3314
▁দূর	-3315
▁দ্য	-3316
▁নেত	-3317
▁পাখ	-3318
▁পাথ	-3319
▁পিট	-3320
▁বেঁ	-3321
▁মাম	-3322
▁মার	-3323
▁মোট	-3324
▁রাশ	-3325
▁রেক	-3326
▁লাভ	-3327
▁লেখ	-3328
▁শার	-3329
▁সাই	-3330
▁স্ন	-3331
▁২০০	-3332
acter	-3333
ality	-3334
anted	-3335
aring	-3336
bably	-3337
cific	-3338
erest	-3339
erved	-3340
esday	-3341
iking	-3342
istic	-3343
ivers	-3344
ories	-3345
ready	-3346
ustry	-3347
ক্ষার	-3348
ঙ্গিত	-3349
চিত্র	-3350
ত্ত্ব	-3351
নাক্ত	-3352
বারের	-3353
যাত্র	-3354
স্থার	-3355
াত্মক	-3356
িয়াম	-3357
ৃতীয়	-3358
েনীয়	-3359
োমুখি	-3360
্থিতি	-3361
▁1970	-3362
▁2008	-3363
▁band	-3364
▁bank	-3365
▁base	-3366
▁batt	-3367
▁bott	-3368
▁bulb	-3369
▁cany	-3370
▁case	-3371
▁club	-3372
▁cold	-3373
▁come	-3374
▁conf	-3375
▁copy	-3376
▁dise	-3377
▁drin	-3378
▁easy	-3379
▁else	-3380
▁exam	-3381
▁five	-3382
▁flow	-3383
▁fund	-3384
▁john	-3385
▁list	-3386
▁mean	-3387
▁mind	-3388
▁mole	-3389
▁move	-3390
▁next	-3391
▁once	-3392
▁oper	-3393
▁park	-3394
▁pole	-3395
▁prof	-3396
▁rock	-3397
▁sing	-3398
▁stre	-3399
▁wide	-3400
▁wild	-3401
▁অবৈধ	-3402
▁অল্প	-3403
▁আগেই	-3404
▁আত্ম	-3405
▁আর্থ	-3406
▁উদ্ধ	-3407
▁করলে	-3408
▁গর্ত	-3409
▁গ্রে	-3410
▁ঘটনা	-3411
▁ঘুরে	-3412
▁জন্ম	-3413
▁ডলার	-3414
▁নাগর	-3415
▁নিতে	-3416
▁পড়া	-3417
▁পায়	-3418
▁পুনর	-3419
▁বলেন	-3420
▁বস্ত	-3421
▁বেলজ	-3422
▁ভ্রম	-3423
▁মহাস	-3424
▁মানে	-3425
▁মূলত	-3426
▁রক্ত	-3427
▁সঠিক	-3428
▁সত্য	-3429
▁সভ্য	-3430
▁সেরা	-3431
ending	-3432
ensive	-3433
idence	-3434
ograph	-3435
ornado	-3436
কারীরা	-3437
র্নেডো	-3438
াকিস্ত	-3439
িংয়ের	-3440
িয়নের	-3441
িস্টার	-3442
েনারেল	-3443
োয়াড়	-3444
▁accom	-3445
▁among	-3446
▁atoms	-3447
▁award	-3448
▁beaut	-3449
▁cause	-3450
▁cheap	-3451
▁colon	-3452
▁crowd	-3453
▁death	-3454
▁enjoy	-3455
▁estim	-3456
▁franc	-3457
▁goals	-3458
▁hotel	-3459
▁ident	-3460
▁italy	-3461
▁media	-3462
▁milit	-3463
▁never	-3464
▁ocean	-3465
▁phone	-3466
▁pract	-3467
▁roman	-3468
▁royal	-3469
▁separ	-3470
▁ships	-3471
▁tours	-3472
▁union	-3473
▁vehic	-3474
▁whole	-3475
▁অপরাধ	-3476
▁কার্ড	-3477
▁খারাপ	-3478
▁গ্যাস	-3479
▁গ্রিন	-3480
▁ঘন্টা	-3481
▁চীনের	-3482
▁চুক্ত	-3483
▁টিকিট	-3484
▁তাঁরা	-3485
▁তারপর	-3486
▁তিনটি	-3487
▁তোমার	-3488
▁দুর্ঘ	-3489
▁দেখার	-3490
▁নিরাপ	-3491
▁পড়ার	-3492
▁পারবে	-3493
▁পার্ক	-3494
▁বিজ্ঞ	-3495
▁বিস্ত	-3496
▁ব্যয়	-3497
▁মুক্ত	-3498
▁মৌসুম	-3499
▁যাবেন	-3500
▁রাতের	-3501
▁রানিং	-3502
▁রোমান	-3503
▁শতকের	-3504
▁সংক্র	-3505
▁সতর্ক	-3506
▁সদস্য	-3507
▁সার্ভ	-3508
▁সিদ্ধ	-3509
▁সীমিত	-3510
ination	-3511
marines	-3512
ropical	-3513
ruction	-3514
ulation	-3515
▁access	-3516
▁allows	-3517
▁amount	-3518
▁better	-3519
▁brazil	-3520
▁either	-3521
▁former	-3522
▁global	-3523
▁having	-3524
▁health	-3525
▁helped	-3526
▁larger	-3527
▁launch	-3528
▁legisl	-3529
▁length	-3530
▁living	-3531
▁neighb	-3532
▁others	-3533
▁slight	-3534
▁spoken	-3535
▁threat	-3536
▁trying	-3537
▁turkey	-3538
▁অর্থনী	-3539
▁ইঙ্গিত	-3540
▁উপাদান	-3541
▁এগিয়ে	-3542
▁এসেছিল	-3543
▁ক্ষমতা	-3544
▁চাঁদের	-3545
▁তারপরে	-3546
▁তুরস্ক	-3547
▁দক্ষতা	-3548
▁দুর্বল	-3549
▁নিজেকে	-3550
▁পাহাড়	-3551
▁পূর্বে	-3552
▁প্রকৃত	-3553
▁প্রাণী	-3554
▁প্রাথম	-3555
▁বাইরের	-3556
▁বাস্তব	-3557
▁ভিত্তি	-3558
▁যেহেতু	-3559
▁রেকর্ড	-3560
▁শতাব্দ	-3561
▁সবথেকে	-3562
▁সীমানা	-3563
▁already	-3564
▁connect	-3565
▁earlier	-3566
▁english	-3567
▁germany	-3568
▁illegal	-3569
▁italian	-3570
▁medical	-3571
▁minutes	-3572
▁planned	-3573
▁present	-3574
▁quickly	-3575
▁restaur	-3576
▁staying	-3577
▁working	-3578
▁একমাত্র	-3579
▁খ্রিস্ট	-3580
▁চিহ্নিত	-3581
▁ধর্মীয়	-3582
▁পরিষেবা	-3583
▁প্রত্যা	-3584
▁প্রান্ত	-3585
▁বিবেচনা	-3586
▁বৃহত্তম	-3587
▁ব্রাজিল	-3588
▁মেট্রোপ	-3589
▁রিপোর্ট	-3590
▁সিস্টেম	-3591
▁হওয়ায়	-3592
▁american	-3593
▁becoming	-3594
▁consider	-3595
▁cultural	-3596
▁industry	-3597
▁involved	-3598
▁probably	-3599
▁received	-3600
▁required	-3601
▁southern	-3602
▁specific	-3603
▁আক্রান্ত	-3604
▁টেলিভিশন	-3605
▁পৃথিবীতে	-3606
▁প্রস্তাব	-3607
▁মুখোমুখি	-3608
▁announced	-3609
▁generally	-3610
▁religious	-3611
▁thousands	-3612
▁খেলোয়াড়	-3613
▁পরিবর্তিত	-3614
▁পরিস্থিতি	-3615
▁প্রাকৃতিক	-3616
▁সিদ্ধান্ত	-3617
▁additional	-3618
▁everything	-3619
▁kilometres	-3620
▁submarines	-3621
▁নিয়ন্ত্রণ	-3622
▁authorities	-3623
▁individuals	-3624
▁অস্ট্রেলিয়ার	-3625
22	-3626
39	-3627
50	-3628
62	-3629
76	-3630
az	-3631
do	-3632
go	-3633
ha	-3634
io	-3635
ka	-3636
ng	-3637
of	-3638
rs	-3639
ts	-3640
up	-3641
yp	-3642
ঁক	-3643
আর	-3644
এই	-3645
কত	-3646
কম	-3647
খল	-3648
ডা	-3649
দক	-3650
দৃ	-3651
পস	-3652
সন	-3653
হত	-3654
হু	-3655
াৎ	-3656
ীম	-3657
ুব	-3658
▁I	-3659
▁৬	-3660
▁৮	-3661
ami	-3662
amp	-3663
cel	-3664
ght	-3665
idd	-3666
ikh	-3667
ior	-3668
ito	-3669
off	-3670
oid	-3671
osp	-3672
oss	-3673
pan	-3674
ron	-3675
run	-3676
ted	-3677
ute	-3678
xim	-3679
zer	-3680
এটি	-3681
ক্য	-3682
জ্জ	-3683
টিভ	-3684
টিল	-3685
ণিজ	-3686
নাম	-3687
বুও	-3688
ভিড	-3689
মির	-3690
রির	-3691
লেন	-3692
াইল	-3693
ালো	-3694
িতা	-3695
ূরণ	-3696
েইল	-3697
েতন	-3698
েনজ	-3699
েলা	-3700
োনা	-3701
্লে	-3702
▁48	-3703
▁80	-3704
▁cy	-3705
▁ey	-3706
▁je	-3707
▁ju	-3708
▁ur	-3709
▁আঠ	-3710
▁ইভ	-3711
▁ইর	-3712
▁এছ	-3713
▁এন	-3714
▁কত	-3715
▁কফ	-3716
▁খর	-3717
▁জর	-3718
▁জো	-3719
▁তী	-3720
▁দো	-3721
▁নক	-3722
▁নভ	-3723
▁পছ	-3724
▁ফল	-3725
▁বই	-3726
▁ভি	-3727
▁যৌ	-3728
▁সচ	-3729
▁সৌ	-3730
▁হত	-3731
,500	-3732
ades	-3733
alls	-3734
ansk	-3735
ball	-3736
cell	-3737
cept	-3738
cies	-3739
come	-3740
ctic	-3741
eral	-3742
ging	-3743
haps	-3744
head	-3745
ials	-3746
idge	-3747
ient	-3748
inct	-3749
ired	-3750
ised	-3751
itiz	-3752
lebr	-3753
oint	-3754
ored	-3755
pite	-3756
rove	-3757
uced	-3758
viet	-3759
ংখ্য	-3760
গ্রহ	-3761
ঙ্গি	-3762
চারী	-3763
জাতি	-3764
থায়	-3765
ধ্যে	-3766
পত্র	-3767
পশ্চ	-3768
বহুল	-3769
বাদী	-3770
াত্ত	-3771
ার্জ	-3772
াহরণ	-3773
িকেন	-3774
িবেশ	-3775
ুড়ি	-3776
ুরের	-3777
ৃত্ব	-3778
েক্স	-3779
েদের	-3780
োঁরা	-3781
োলার	-3782
্বাস	-3783
্বেও	-3784
▁194	-3785
▁196	-3786
▁abs	-3787
▁big	-3788
▁def	-3789
▁dev	-3790
▁dre	-3791
▁dru	-3792
▁emp	-3793
▁fed	-3794
▁fif	-3795
▁flo	-3796
▁gal	-3797
▁gur	-3798
▁jan	-3799
▁led	-3800
▁let	-3801
▁lot	-3802
▁lux	-3803
▁mic	-3804
▁mig	-3805
▁neg	-3806
▁occ	-3807
▁opt	-3808
▁pen	-3809
▁pet	-3810
▁pil	-3811
▁red	-3812
▁sat	-3813
▁she	-3814
▁ski	-3815
▁sle	-3816
▁spl	-3817
▁sug	-3818
▁sus	-3819
▁sym	-3820
▁tro	-3821
▁vot	-3822
▁web	-3823
▁yet	-3824
▁অণু	-3825
▁আরে	-3826
▁আলো	-3827
▁আশে	-3828
▁একে	-3829
▁ওঠে	-3830
▁করো	-3831
▁কাউ	-3832
▁খবর	-3833
▁গবে	-3834
▁চতু	-3835
▁তরল	-3836
▁দখল	-3837
▁নজর	-3838
▁নদী	-3839
▁নিক	-3840
▁ফেল	-3841
▁বুক	-3842
▁বের	-3843
▁বোধ	-3844
▁ভুল	-3845
▁ভোট	-3846
▁মনো	-3847
▁মেঘ	-3848
▁মের	-3849
▁যেন	-3850
▁শরী	-3851
▁শুন	-3852
▁সংখ	-3853
▁সকল	-3854
▁সুই	-3855
▁সোভ	-3856
▁স্ম	-3857
▁হাই	-3858
ament	-3859
aught	-3860
eland	-3861
ember	-3862
fully	-3863
iance	-3864
ients	-3865
ional	-3866
iting	-3867
ouble	-3868
round	-3869
জুড়ে	-3870
জ্জনক	-3871
ঞ্জিন	-3872
টগুলি	-3873
ণ্ডের	-3874
দৃশ্য	-3875
নৈতিক	-3876
পাশের	-3877
বার্ট	-3878
বিষ্য	-3879
বোচ্চ	-3880
ম্পিউ	-3881
ম্যান	-3882
যুদ্ধ	-3883
র্ঘ্য	-3884
সাম্য	-3885
াক্তন	-3886
ান্টা	-3887
ায়ার	-3888
িকাংশ	-3889
্যায়	-3890
্যালে	-3891
▁2010	-3892
▁alex	-3893
▁alph	-3894
▁appe	-3895
▁arch	-3896
▁away	-3897
▁boat	-3898
▁born	-3899
▁came	-3900
▁cars	-3901
▁clos	-3902
▁cook	-3903
▁days	-3904
▁died	-3905
▁edge	-3906
▁fast	-3907
▁fest	-3908
▁fold	-3909
▁gard	-3910
▁hang	-3911
▁hard	-3912
▁heat	-3913
▁hind	-3914
▁hous	-3915
▁imag	-3916
▁issu	-3917
▁jour	-3918
▁life	-3919
▁navy	-3920
▁ones	-3921
▁path	-3922
▁phen	-3923
▁pict	-3924
▁post	-3925
▁prim	-3926
▁purp	-3927
▁rain	-3928
▁rele	-3929
▁rese	-3930
▁risk	-3931
▁sikh	-3932
▁size	-3933
▁sold	-3934
▁stra	-3935
▁sure	-3936
▁surv	-3937
▁team	-3938
▁thus	-3939
▁tick	-3940
▁tiny	-3941
▁tomb	-3942
▁trip	-3943
▁want	-3944
▁warm	-3945
▁ways	-3946
▁went	-3947
▁word	-3948
▁writ	-3949
▁অংশে	-3950
▁অতিক	-3951
▁অধ্য	-3952
▁অনুর	-3953
▁অস্ত	-3954
▁আগের	-3955
▁আনতে	-3956
▁আবাস	-3957
▁আমার	-3958
▁ইংরে	-3959
▁ক্রম	-3960
▁খুঁজ	-3961
▁গল্প	-3962
▁চ্যা	-3963
▁জটিল	-3964
▁জাতি	-3965
▁তৈরী	-3966
▁দলের	-3967
▁দশকে	-3968
▁নাড়	-3969
▁নীতি	-3970
▁পঞ্চ	-3971
▁পর্ব	-3972
▁পাঁচ	-3973
▁পূরণ	-3974
▁ফর্ম	-3975
▁ফ্রে	-3976
▁বছরে	-3977
▁বাকি	-3978
▁বায়	-3979
▁বেশী	-3980
▁ভেঙে	-3981
▁মঙ্গ	-3982
▁মনোন	-3983
▁রাখা	-3984
▁রাতে	-3985
▁রেখে	-3986
▁লম্ব	-3987
▁শতকে	-3988
▁শীতল	-3989
▁সংগঠ	-3990
▁সাফল	-3991
▁স্বী	-3992
ancial	-3993
idents	-3994
itical	-3995
itting	-3996
ricane	-3997
selves	-3998
ক্রিয়	-3999
গুলোকে	-4000
ন্তব্য	-4001
েন্টের	-4002
▁above	-4003
▁achie	-4004
▁ahead	-4005
▁black	-4006
▁blood	-4007
▁carri	-4008
▁carry	-4009
▁cases	-4010
▁cells	-4011
▁chile	-4012
▁citiz	-4013
▁close	-4014
▁early	-4015
▁expos	-4016
▁falls	-4017
▁field	-4018
▁fleet	-4019
▁focus	-4020
▁games	-4021
▁hours	-4022
▁house	-4023
▁influ	-4024
▁lower	-4025
▁party	-4026
▁peace	-4027
▁press	-4028
▁prior	-4029
▁range	-4030
▁rates	-4031
▁round	-4032
▁sansk	-4033
▁sides	-4034
▁sites	-4035
▁steep	-4036
▁study	-4037
▁taken	-4038
▁third	-4039
▁trail	-4040
▁twent	-4041
▁video	-4042
▁watch	-4043
▁white	-4044
▁আজকের	-4045
▁উন্নত	-4046
▁উপভোগ	-4047
▁উপরের	-4048
▁একবার	-4049
▁এখানে	-4050
▁এগুলি	-4051
▁এটিকে	-4052
▁এলাকা	-4053
▁করছেন	-4054
▁কর্মক	-4055
▁কাঠাম	-4056
▁কার্য	-4057
▁ক্লাব	-4058
▁গতিতে	-4059
▁গ্রহণ	-4060
▁চলেছে	-4061
▁ছাড়া	-4062
▁জরুরি	-4063
▁ট্রাই	-4064
▁ট্রেন	-4065
▁থেকেই	-4066
▁দর্শন	-4067
▁নিয়ম	-4068
▁পক্ষে	-4069
▁পড়তে	-4070
▁পরিবহ	-4071
▁পশ্চি	-4072
▁পুনর্	-4073
▁প্রচল	-4074
▁বয়সী	-4075
▁বরফের	-4076
▁বলেছে	-4077
▁বাচ্চ	-4078
▁বাণিজ	-4079
▁বার্ষ	-4080
▁বিক্ষ	-4081
▁ব্যাক	-4082
▁ভাড়া	-4083
▁মস্তি	-4084
▁মানের	-4085
▁মৌলিক	-4086
▁যেকোন	-4087
▁রেস্ত	-4088
▁শহরটি	-4089
▁শান্ত	-4090
▁শারীর	-4091
▁শ্রেণ	-4092
▁সম্পদ	-4093
▁সস্তা	-4094
▁সামনে	-4095
▁হয়তো	-4096
▁হাওয়	-4097
artment	-4098
isation	-4099
কারীদের	-4100
প্রাপ্ত	-4101
বাহিনীর	-4102
স্থায়ী	-4103
ান্তীয়	-4104
▁almost	-4105
▁arrest	-4106
▁beauty	-4107
▁bottom	-4108
▁canada	-4109
▁canyon	-4110
▁caused	-4111
▁celebr	-4112
▁center	-4113
▁commer	-4114
▁compet	-4115
▁comput	-4116
▁couple	-4117
▁covers	-4118
▁disney	-4119
▁effect	-4120
▁inside	-4121
▁joined	-4122
▁leaves	-4123
▁months	-4124
▁mostly	-4125
▁nearly	-4126
▁needed	-4127
▁offers	-4128
▁online	-4129
▁passed	-4130
▁played	-4131
▁player	-4132
▁rather	-4133
▁return	-4134
▁saying	-4135
▁skills	-4136
▁source	-4137
▁soviet	-4138
▁struct	-4139
▁trains	-4140
▁অনুমান	-4141
▁অসংখ্য	-4142
▁ইঞ্জিন	-4143
▁উদাহরণ	-4144
▁কম্পিউ	-4145
▁চতুর্থ	-4146
▁তত্ত্ব	-4147
▁তাঁদের	-4148
▁তৃতীয়	-4149
▁দৃষ্টি	-4150
▁দেখানো	-4151
▁নাগরিক	-4152
▁পশ্চিম	-4153
▁প্রবাহ	-4154
▁বাহিনী	-4155
▁বিকল্প	-4156
▁বিজয়ী	-4157
▁বিমানব	-4158
▁বৃদ্ধি	-4159
▁বৃষ্টি	-4160
▁ভবিষ্য	-4161
▁মাত্রা	-4162
▁লোকেরা	-4163
▁শিক্ষা	-4164
▁শিশুরা	-4165
▁সংগ্রহ	-4166
▁সভ্যতা	-4167
▁সমর্থন	-4168
▁সৃষ্টি	-4169
▁স্কুলে	-4170
▁স্থাপন	-4171
▁স্পষ্ট	-4172
▁স্বল্প	-4173
▁হোটেলে	-4174
inations	-4175
▁advance	-4176
▁allowed	-4177
▁balance	-4178
▁changed	-4179
▁complex	-4180
▁control	-4181
▁despite	-4182
▁destroy	-4183
▁driving	-4184
▁francis	-4185
▁network	-4186
▁perhaps	-4187
▁private	-4188
▁provide	-4189
▁remains	-4190
▁reports	-4191
▁smaller	-4192
▁suggest	-4193
▁tornado	-4194
▁tourism	-4195
▁traffic	-4196
▁vehicle	-4197
▁whether	-4198
▁অঞ্চলের	-4199
▁অধিকাংশ	-4200
▁ইউনিয়ন	-4201
▁উত্তরাধ	-4202
▁উপযুক্ত	-4203
▁এছাড়াও	-4204
▁এলাকায়	-4205
▁কার্যকর	-4206
▁ছড়িয়ে	-4207
▁জেনারেল	-4208
▁টর্নেডো	-4209
▁দিয়েছে	-4210
▁দুর্ঘটন	-4211
▁নামিয়ে	-4212
▁নিজেদের	-4213
▁নির্বাচ	-4214
▁নেতৃত্ব	-4215
▁পাকিস্ত	-4216
▁পুনরায়	-4217
▁বর্তমান	-4218
▁বাহিনীর	-4219
▁মিস্টার	-4220
▁যাচ্ছিল	-4221
▁শিক্ষার	-4222
▁শিশুদের	-4223
▁সংক্রাম	-4224
▁সংস্কৃত	-4225
▁সংস্থার	-4226
▁believed	-4227
▁citizens	-4228
▁complete	-4229
▁distinct	-4230
▁evidence	-4231
▁frequent	-4232
▁interest	-4233
▁maintain	-4234
▁minister	-4235
▁negative	-4236
▁organism	-4237
▁physical	-4238
▁positive	-4239
▁sanskrit	-4240
▁slightly	-4241
▁speakers	-4242
▁standard	-4243
▁tropical	-4244
▁visitors	-4245
▁অনুষ্ঠিত	-4246
▁অনেকগুলি	-4247
▁অভিযুক্ত	-4248
▁আফ্রিকার	-4249
▁আমেরিকান	-4250
▁কারাগারে	-4251
▁দিয়েছিল	-4252
▁প্রাক্তন	-4253
▁বর্তমানে	-4254
▁বিপজ্জনক	-4255
▁ভারসাম্য	-4256
▁মস্তিষ্ক	-4257
▁শতাব্দীর	-4258
▁সত্ত্বেও	-4259
▁সম্ভাবনা	-4260
▁সর্বোচ্চ	-4261
▁সোভিয়েত	-4262
▁স্পেনীয়	-4263
▁australia	-4264
▁community	-4265
▁dangerous	-4266
▁developed	-4267
▁education	-4268
▁financial	-4269
▁hurricane	-4270
▁officials	-4271
▁potential	-4272
▁relations	-4273
▁remaining	-4274
▁something	-4275
▁অভিজ্ঞতার	-4276
▁গ্র্যান্ড	-4277
▁তুলনামূলক	-4278
▁দাঁড়িয়ে	-4279
▁পর্যটকদের	-4280
▁বেশিরভাগই	-4281
▁সম্পর্কিত	-4282
▁স্বাভাবিক	-4283
▁conditions	-4284
▁photograph	-4285
▁ক্রান্তীয়	-4286
▁দিয়েছিলেন	-4287
▁বিজ্ঞানীরা	-4288
▁বিশ্বজুড়ে	-4289
▁বিশ্বযুদ্ধ	-4290
▁established	-4291
▁independence	-4292
▁দ্বীপপুঞ্জের	-4293
▁প্রয়োজনীয়তা	-4294
▁শিক্ষার্থীদের	-4295
▁নিউজিল্যান্ডের	-4296
-3	-4297
..	-4298
1)	-4299
10	-4300
15	-4301
18	-4302
29	-4303
4.	-4304
bu	-4305
ex	-4306
ke	-4307
lf	-4308
oo	-4309
ov	-4310
pr	-4311
ta	-4312
tc	-4313
uj	-4314
ín	-4315
আম	-4316
কর	-4317
কু	-4318
গম	-4319
চক	-4320
চু	-4321
ছি	-4322
ণা	-4323
দল	-4324
ধে	-4325
বন	-4326
বৃ	-4327
ব্	-4328
মত	-4329
মহ	-4330
লো	-4331
সি	-4332
হূ	-4333
হে	-4334
াং	-4335
ূহ	-4336
োখ	-4337
৩০	-4338
▁,	-4339
▁৭	-4340
""।	-4341
-76	-4342
200	-4343
ads	-4344
agn	-4345
alf	-4346
alk	-4347
ars	-4348
ati	-4349
bed	-4350
bre	-4351
cra	-4352
cto	-4353
ems	-4354
ese	-4355
gar	-4356
gin	-4357
iff	-4358
ift	-4359
irm	-4360
ked	-4361
los	-4362
lyn	-4363
mod	-4364
mon	-4365
not	-4366
omb	-4367
ona	-4368
ont	-4369
oom	-4370
por	-4371
rat	-4372
spe	-4373
tes	-4374
tic	-4375
ula	-4376
ump	-4377
unk	-4378
val	-4379
yle	-4380
ঁরা	-4381
কূল	-4382
ক্ল	-4383
ক্স	-4384
খাম	-4385
গান	-4386
গাম	-4387
জিং	-4388
টিং	-4389
তরা	-4390
দাল	-4391
দীপ	-4392
প্ট	-4393
প্ন	-4394
বিল	-4395
ব্র	-4396
য়ন	-4397
রকে	-4398
রিত	-4399
র্স	-4400
লাপ	-4401
লিস	-4402
লেই	-4403
ষিত	-4404
ষেধ	-4405
ষ্ণ	-4406
সিক	-4407
হার	-4408
হিত	-4409
াংশ	-4410
াইম	-4411
াইর	-4412
াটা	-4413
াবল	-4414
িনে	-4415
িরি	-4416
ীকে	-4417
ীরে	-4418
ুতি	-4419
ুর্	-4420
েমব	-4421
েলো	-4422
োকা	-4423
্কা	-4424
্টর	-4425
্রি	-4426
্সি	-4427
▁1,	-4428
▁34	-4429
▁40	-4430
▁56	-4431
▁60	-4432
▁aw	-4433
▁ep	-4434
▁ic	-4435
▁io	-4436
▁la	-4437
▁tu	-4438
▁wa	-4439
▁আপ	-4440
▁আব	-4441
▁ইক	-4442
▁উই	-4443
▁কন	-4444
▁গভ	-4445
▁চৌ	-4446
▁জে	-4447
▁ঝু	-4448
▁ডু	-4449
▁ডে	-4450
▁তল	-4451
▁দল	-4452
▁ধন	-4453
▁নথ	-4454
▁পত	-4455
▁পল	-4456
▁ফট	-4457
▁ফে	-4458
▁মদ	-4459
▁রু	-4460
▁শো	-4461
▁হন	-4462
▁১০	-4463
▁১৬	-4464
▁১৮	-4465
abet	-4466
ador	-4467
aged	-4468
aily	-4469
ateg	-4470
bert	-4471
cing	-4472
cket	-4473
cope	-4474
enus	-4475
enya	-4476
ests	-4477
fast	-4478
gust	-4479
ians	-4480
imul	-4481
iven	-4482
know	-4483
less	-4484
olic	-4485
oney	-4486
onia	-4487
ores	-4488
otyp	-4489
ourg	-4490
pass	-4491
plus	-4492
quer	-4493
quip	-4494
rect	-4495
rels	-4496
reme	-4497
ring	-4498
rons	-4499
sure	-4500
ture	-4501
vict	-4502
west	-4503
কিছু	-4504
কীয়	-4505
ঙ্গা	-4506
ছানা	-4507
তরাং	-4508
তিতে	-4509
ত্তা	-4510
পর্য	-4511
বন্ধ	-4512
ভাষী	-4513
মেয়	-4514
য়োগ	-4515
রূপে	-4516
সায়	-4517
সেরা	-4518
াক্ষ	-4519
াদার	-4520
াধান	-4521
ায়ক	-4522
ার্ম	-4523
িতার	-4524
িসকো	-4525
ুক্স	-4526
েরাং	-4527
োল্ড	-4528
োসের	-4529
োস্ট	-4530
্টোব	-4531
্ডিং	-4532
্বিক	-4533
্যাড	-4534
্রাজ	-4535
্রোজ	-4536
▁(16	-4537
▁1.5	-4538
▁149	-4539
▁160	-4540
▁2,2	-4541
▁800	-4542
▁age	-4543
▁amb	-4544
▁ans	-4545
▁arg	-4546
▁ari	-4547
▁bed	-4548
▁ber	-4549
▁bes	-4550
▁bud	-4551
▁cir	-4552
▁cru	-4553
▁deg	-4554
▁din	-4555
▁ecu	-4556
▁enc	-4557
▁hol	-4558
▁ide	-4559
▁mor	-4560
▁mos	-4561
▁mus	-4562
▁nav	-4563
▁non	-4564
▁pac	-4565
▁pay	-4566
▁pun	-4567
▁rat	-4568
▁rev	-4569
▁ric	-4570
▁rug	-4571
▁rul	-4572
▁sir	-4573
▁too	-4574
▁tub	-4575
▁und	-4576
▁ver	-4577
▁via	-4578
▁wed	-4579
▁why	-4580
▁অধি	-4581
▁আসল	-4582
▁একক	-4583
▁কফি	-4584
▁কাত	-4585
▁কিং	-4586
▁খোঁ	-4587
▁গুণ	-4588
▁গুল	-4589
▁চোখ	-4590
▁জুম	-4591
▁জের	-4592
▁জ্ব	-4593
▁ডাক	-4594
▁ডান	-4595
▁ধনী	-4596
▁পথে	-4597
▁পেশ	-4598
▁পোল	-4599
▁প্ল	-4600
▁ফলা	-4601
▁ফিল	-4602
▁বসে	-4603
▁বাজ	-4604
▁বান	-4605
▁বুম	-4606
▁বেস	-4607
▁ভাঙ	-4608
▁মাও	-4609
▁মিথ	-4610
▁রয়	-4611
▁রূপ	-4612
▁রেই	-4613
▁লাই	-4614
▁লুন	-4615
▁লেক	-4616
▁সংক	-4617
▁সংঘ	-4618
▁সমৃ	-4619
▁সাগ	-4620
▁সির	-4621
▁সেজ	-4622
▁সোম	-4623
▁হতা	-4624
▁হাঁ	-4625
▁হুম	-4626
▁২০১	-4627
aches	-4628
ained	-4629
asons	-4630
aster	-4631
cious	-4632
cules	-4633
ffiti	-4634
gress	-4635
hamun	-4636
ights	-4637
iness	-4638
ingly	-4639
ipper	-4640
ittee	-4641
izing	-4642
known	-4643
order	-4644
orter	-4645
oting	-4646
rogen	-4647
ublic	-4648
usion	-4649
verse	-4650
ঙ্কার	-4651
টিয়ে	-4652
ড়াতে	-4653
ড়ায়	-4654
দান্ত	-4655
দ্বীপ	-4656
ধারিত	-4657
পূর্ব	-4658
প্রতি	-4659
প্রাণ	-4660
বিধার	-4661
মান্য	-4662
মেরিন	-4663
য়নের	-4664
র্দান	-4665
ল্পনা	-4666
স্থান	-4667
হূর্ত	-4668
াবশেষ	-4669
ার্কে	-4670
িকম্প	-4671
িকারী	-4672
িপিএস	-4673
িয়াক	-4674
িশনার	-4675
ুয়েড	-4676
ুর্কি	-4677
্পষ্ট	-4678
▁bomb	-4679
▁bord	-4680
▁cast	-4681
▁coff	-4682
▁cycl	-4683
▁date	-4684
▁desc	-4685
▁docu	-4686
▁dram	-4687
▁east	-4688
▁ever	-4689
▁fail	-4690
▁fear	-4691
▁feel	-4692
▁flor	-4693
▁free	-4694
▁full	-4695
▁half	-4696
▁hill	-4697
▁init	-4698
▁june	-4699
▁left	-4700
▁magn	-4701
▁mara	-4702
▁mass	-4703
▁mori	-4704
▁mult	-4705
▁octo	-4706
▁onto	-4707
▁pers	-4708
▁prog	-4709
▁race	-4710
▁rare	-4711
▁reid	-4712
▁rein	-4713
▁repl	-4714
▁resp	-4715
▁rich	-4716
▁roll	-4717
▁rule	-4718
▁sect	-4719
▁site	-4720
▁slow	-4721
▁step	-4722
▁supp	-4723
▁text	-4724
▁tilt	-4725
▁told	-4726
▁tric	-4727
▁true	-4728
▁vary	-4729
▁view	-4730
▁visa	-4731
▁zoom	-4732
▁অগ্ন	-4733
▁অতিথ	-4734
▁অফার	-4735
▁অভ্য	-4736
▁অর্ধ	-4737
▁আইনী	-4738
▁আছেন	-4739
▁আবার	-4740
▁আর্ম	-4741
▁আসতে	-4742
▁ইতিম	-4743
▁উল্ক	-4744
▁উষ্ণ	-4745
▁এক্স	-4746
▁ওয়া	-4747
▁চায়	-4748
▁চালু	-4749
▁চিলি	-4750
▁চূড়	-4751
▁জানি	-4752
▁ডিজন	-4753
▁তবুও	-4754
▁তাড়	-4755
▁তুলে	-4756
▁তোলে	-4757
▁দিনে	-4758
▁ধীরে	-4759
▁নাটক	-4760
▁নামক	-4761
▁নেমে	-4762
▁পক্ষ	-4763
▁পরেই	-4764
▁পাতা	-4765
▁ফোটন	-4766
▁বক্ত	-4767
▁বন্দ	-4768
▁বোঝা	-4769
▁ভিসা	-4770
▁রাখে	-4771
▁শহরে	-4772
▁সমান	-4773
▁সহজে	-4774
▁সাগর	-4775
▁স্টি	-4776
▁স্থল	-4777
active	-4778
atives	-4779
atures	-4780
estern	-4781
oughly	-4782
person	-4783
গ্রস্থ	-4784
ন্ত্রী	-4785
বাহিনী	-4786
স্থাপন	-4787
ার্জিন	-4788
ার্ল্ড	-4789
িত্রের	-4790
িপূর্ণ	-4791
েমবার্	-4792
▁11:00	-4793
▁9,000	-4794
▁abort	-4795
▁agent	-4796
▁agree	-4797
▁armen	-4798
▁avoid	-4799
▁began	-4800
▁behav	-4801
▁below	-4802
▁cards	-4803
▁carib	-4804
▁categ	-4805
▁chair	-4806
▁chall	-4807
▁champ	-4808
▁colle	-4809
▁comes	-4810
▁court	-4811
▁crash	-4812
▁crude	-4813
▁daily	-4814
▁decis	-4815
▁decor	-4816
▁domin	-4817
▁dream	-4818
▁eight	-4819
▁equip	-4820
▁exist	-4821
▁explo	-4822
▁front	-4823
▁given	-4824
▁hangi	-4825
▁heart	-4826
▁heavy	-4827
▁image	-4828
▁immig	-4829
▁india	-4830
▁inhab	-4831
▁issue	-4832
▁kenya	-4833
▁latin	-4834
▁liter	-4835
▁maori	-4836
▁match	-4837
▁money	-4838
▁motor	-4839
▁named	-4840
▁needs	-4841
▁parts	-4842
▁phase	-4843
▁plate	-4844
▁prime	-4845
▁print	-4846
▁quite	-4847
▁refer	-4848
▁sense	-4849
▁shock	-4850
▁sight	-4851
▁sleep	-4852
▁split	-4853
▁sport	-4854
▁stere	-4855
▁venus	-4856
▁virus	-4857
▁worth	-4858
▁young	-4859
▁অক্ষর	-4860
▁আঠারো	-4861
▁ইত্যা	-4862
▁উদ্বে	-4863
▁উদ্ভি	-4864
▁উপকূল	-4865
▁ক্যাল	-4866
▁গ্রাফ	-4867
▁গ্রীন	-4868
▁ঘূর্ণ	-4869
▁চলচ্চ	-4870
▁চার্ল	-4871
▁ছাত্র	-4872
▁ছেড়ে	-4873
▁জানতে	-4874
▁জীবের	-4875
▁ট্যাক	-4876
▁ট্যুর	-4877
▁তাঁকে	-4878
▁তুলনা	-4879
▁থাকবে	-4880
▁থাকলে	-4881
▁দৃশ্য	-4882
▁নিম্ন	-4883
▁পড়াশ	-4884
▁পর্যা	-4885
▁পাবেন	-4886
▁পিছনে	-4887
▁পুরনো	-4888
▁পৌঁছে	-4889
▁প্যার	-4890
▁ফরাসি	-4891
▁ফরাসী	-4892
▁বর্ণম	-4893
▁বিকাশ	-4894
▁ভ্রমন	-4895
▁মঙ্গল	-4896
▁মামলা	-4897
▁মিটার	-4898
▁রাখার	-4899
▁রাস্ত	-4900
▁লম্বা	-4901
▁শেখার	-4902
▁সচেতন	-4903
▁সহজেই	-4904
▁সেখান	-4905
▁স্কুল	-4906
▁স্টার	-4907
▁হাতের	-4908
▁হ্যার	-4909
agement	-4910
embourg	-4911
olution	-4912
omerang	-4913
ওয়ার্ক	-4914
ম্পিয়ন	-4915
▁actual	-4916
▁appear	-4917
▁august	-4918
▁bridge	-4919
▁charge	-4920
▁cities	-4921
▁compan	-4922
▁contin	-4923
▁damage	-4924
▁fairly	-4925
▁family	-4926
▁forces	-4927
▁format	-4928
▁france	-4929
▁friend	-4930
▁gained	-4931
▁geolog	-4932
▁groups	-4933
▁happen	-4934
▁higher	-4935
▁hiking	-4936
▁histor	-4937
▁income	-4938
▁infect	-4939
▁itself	-4940
▁leader	-4941
▁market	-4942
▁member	-4943
▁moving	-4944
▁necess	-4945
▁office	-4946
▁option	-4947
▁phases	-4948
▁policy	-4949
▁routes	-4950
▁russia	-4951
▁safety	-4952
▁search	-4953
▁skiing	-4954
▁square	-4955
▁stable	-4956
▁stated	-4957
▁street	-4958
▁taking	-4959
▁theory	-4960
▁troops	-4961
▁turned	-4962
▁tutank	-4963
▁unique	-4964
▁victim	-4965
▁virgin	-4966
▁volume	-4967
▁অক্টোব	-4968
▁অদৃশ্য	-4969
▁অনুবাদ	-4970
▁অনুসরণ	-4971
▁আকারের	-4972
▁আরেকটি	-4973
▁আর্থিক	-4974
▁ইতালির	-4975
▁ইভেন্ট	-4976
▁উদ্যান	-4977
▁কল্পনা	-4978
▁কীভাবে	-4979
▁খেলাটি	-4980
▁গুরুতর	-4981
▁চিন্তা	-4982
▁ছাড়াই	-4983
▁জানাতে	-4984
▁জানালা	-4985
▁জাপানি	-4986
▁জিপিএস	-4987
▁তুর্কি	-4988
▁থাকবেন	-4989
▁নিজস্ব	-4990
▁পর্যবে	-4991
▁পাথরের	-4992
▁প্রতিক	-4993
▁প্রশ্ন	-4994
▁ফ্লাইট	-4995
▁বলেছিল	-4996
▁বাড়ির	-4997
▁বিছানা	-4998
▁বিদেশী	-4999
▁ব্যর্থ	-5000
▁ব্যাংক	-5001
▁ব্যাপক	-5002
▁মধ্যেই	-5003
▁মাইক্র	-5004
▁মাধ্যম	-5005
▁মৃত্যু	-5006
▁যন্ত্র	-5007
▁যাত্রী	-5008
▁যেকোনো	-5009
▁যোগদান	-5010
▁রাজধান	-5011
▁লোকদের	-5012
▁সনাক্ত	-5013
▁সন্ধান	-5014
▁সমাধান	-5015
▁সম্মেল	-5016
▁সামগ্র	-5017
▁সুতরাং	-5018
▁স্নায়	-5019
▁স্বচ্ছ	-5020
▁স্বপ্ন	-5021
atically	-5022
issioner	-5023
rounding	-5024
speaking	-5025
াত্ত্বিক	-5026
▁100,000	-5027
▁ability	-5028
▁address	-5029
▁airport	-5030
▁arrived	-5031
▁atlanta	-5032
▁attract	-5033
▁awarded	-5034
▁barrels	-5035
▁camping	-5036
▁capital	-5037
▁charges	-5038
▁concent	-5039
▁concern	-5040
▁contact	-5041
▁convict	-5042
▁correct	-5043
▁created	-5044
▁decades	-5045
▁disease	-5046
▁earthqu	-5047
▁eastern	-5048
▁ecuador	-5049
▁example	-5050
▁getting	-5051
▁iceland	-5052
▁improve	-5053
▁largest	-5054
▁meeting	-5055
▁moriori	-5056
▁nations	-5057
▁natural	-5058
▁nuclear	-5059
▁objects	-5060
▁october	-5061
▁purpose	-5062
▁reality	-5063
▁roughly	-5064
▁stories	-5065
▁student	-5066
▁suspect	-5067
▁tickets	-5068
▁towards	-5069
▁trouble	-5070
▁turkish	-5071
▁various	-5072
▁willing	-5073
▁অতিক্রম	-5074
▁অনুমোদন	-5075
▁অন্যদের	-5076
▁অস্পষ্ট	-5077
▁অ্যানিম	-5078
▁ইকুয়েড	-5079
▁ক্যারিব	-5080
▁ক্ষুদ্র	-5081
▁গাড়িতে	-5082
▁চারপাশে	-5083
▁চিকিৎসা	-5084
▁জড়িয়ে	-5085
▁জাহাজটি	-5086
▁ট্যাঙ্ক	-5087
▁ট্রান্স	-5088
▁নির্দেশ	-5089
▁নির্মাণ	-5090
▁নির্মিত	-5091
▁পরীক্ষা	-5092
▁প্রচলিত	-5093
▁প্রতিফল	-5094
▁প্রবর্ত	-5095
▁প্রয়োগ	-5096
▁বাড়িতে	-5097
▁বার্ষিক	-5098
▁বিক্ষোভ	-5099
▁বিবেচিত	-5100
▁বিলিয়ন	-5101
▁বিল্ডিং	-5102
▁বুমেরাং	-5103
▁বৈশিষ্ট	-5104
▁ব্যান্ড	-5105
▁ব্যাপার	-5106
▁ব্যারেল	-5107
▁ভার্জিন	-5108
▁মুহূর্ত	-5109
▁শারীরিক	-5110
▁শীতকালে	-5111
▁সরকারের	-5112
▁সামান্য	-5113
▁সাম্রাজ	-5114
▁স্বাক্ষ	-5115
▁স্বাস্থ	-5116
ification	-5117
▁alliance	-5118
▁alphabet	-5119
▁business	-5120
▁combined	-5121
▁communic	-5122
▁district	-5123
▁electric	-5124
▁elements	-5125
▁extended	-5126
▁graffiti	-5127
▁invented	-5128
▁japanese	-5129
▁neighbor	-5130
▁olympics	-5131
▁original	-5132
▁personal	-5133
▁planning	-5134
▁possibly	-5135
▁property	-5136
▁recorded	-5137
▁religion	-5138
▁republic	-5139
▁suitable	-5140
▁thinking	-5141
▁tourists	-5142
▁wildlife	-5143
▁অংশগ্রহণ	-5144
▁অবস্থানে	-5145
▁অস্থায়ী	-5146
▁আক্রমণের	-5147
▁আমেরিকার	-5148
▁এয়ারলাই	-5149
▁কর্মকর্ত	-5150
▁চূড়ান্ত	-5151
▁জানুয়ার	-5152
▁জার্মানি	-5153
▁পরিবারের	-5154
▁পেয়েছিল	-5155
▁প্রতিবেদ	-5156
▁প্রতিবেশ	-5157
▁প্রত্যেক	-5158
▁প্রদানের	-5159
▁প্রভাবিত	-5160
▁প্রশিক্ষ	-5161
▁প্রাথমিক	-5162
▁বিশেষজ্ঞ	-5163
▁ভূমিকম্প	-5164
▁মূল্যবান	-5165
▁সমস্যায়	-5166
▁সাফল্যের	-5167
▁সাবমেরিন	-5168
▁attention	-5169
▁beginning	-5170
▁boomerang	-5171
▁breakfast	-5172
▁centuries	-5173
▁construct	-5174
▁currently	-5175
▁destroyed	-5176
▁estimated	-5177
▁expensive	-5178
▁francisco	-5179
▁metroplus	-5180
▁molecules	-5181
▁pakistani	-5182
▁president	-5183
▁providing	-5184
▁regarding	-5185
▁reporting	-5186
▁residents	-5187
▁transport	-5188
▁traveller	-5189
▁অনুসন্ধান	-5190
▁অর্থনৈতিক	-5191
▁আকর্ষণীয়	-5192
▁ইউনিয়নের	-5193
▁উদ্দেশ্যে	-5194
▁ওয়ার্ল্ড	-5195
▁কম্পিউটার	-5196
▁দর্শনার্থ	-5197
▁দুর্ঘটনার	-5198
▁দুর্দান্ত	-5199
▁দেশগুলিতে	-5200
▁নিরাপত্তা	-5201
▁নির্ধারিত	-5202
▁নির্বাচিত	-5203
▁প্রতিবেদন	-5204
▁প্রদর্শনী	-5205
▁বাচ্চাদের	-5206
▁বাণিজ্যিক	-5207
▁বিষয়গুলি	-5208
▁ব্যয়বহুল	-5209
▁মূল্যায়ন	-5210
▁যোগাযোগের	-5211
▁রেস্তোঁরা	-5212
▁হয়েছিলেন	-5213
▁associated	-5214
▁commercial	-5215
▁completely	-5216
▁developing	-5217
▁discovered	-5218
▁luxembourg	-5219
▁management	-5220
▁population	-5221
▁themselves	-5222
▁ধ্বংসাবশেষ	-5223
▁নেটওয়ার্ক	-5224
▁প্রথমবারের	-5225
▁শিক্ষার্থী	-5226
▁সাধারণভাবে	-5227
▁immigration	-5228
▁interactive	-5229
▁legislation	-5230
▁participate	-5231
▁photography	-5232
▁restaurants	-5233
▁surrounding	-5234
▁traditional	-5235
▁tutankhamun	-5236
▁উল্লেখযোগ্য	-5237
▁গ্রীষ্মকালে	-5238
▁চ্যাম্পিয়ন	-5239
▁ফ্রান্সিসকো	-5240
▁মেট্রোপ্লাস	-5241
▁সেনাবাহিনীর	-5242
▁commissioner	-5243
▁construction	-5244
▁destinations	-5245
▁understanding	-5246
1,	-5247
6,	-5248
64	-5249
68	-5250
7,	-5251
9,	-5252
CT	-5253
OL	-5254
ax	-5255
ca	-5256
de	-5257
ga	-5258
gr	-5259
gs	-5260
ij	-5261
sl	-5262
sp	-5263
uf	-5264
yn	-5265
উই	-5266
উড	-5267
এন	-5268
এল	-5269
খা	-5270
গল	-5271
টু	-5272
ডি	-5273
তই	-5274
ধর	-5275
পি	-5276
পো	-5277
ফত	-5278
ফা	-5279
ফে	-5280
বী	-5281
যত	-5282
যথ	-5283
যু	-5284
রত	-5285
ষক	-5286
ষি	-5287
সই	-5288
সূ	-5289
হল	-5290
হী	-5291
ুণ	-5292
ৈর	-5293
োহ	-5294
১৯	-5295
৪০	-5296
৬৮	-5297
▁$	-5298
▁/	-5299
তী	-5300
▁R	-5301
▁x	-5302
▁ঈ	-5303
"",	-5304
,""	-5305
aff	-5306
alo	-5307
ark	-5308
ata	-5309
bai	-5310
bod	-5311
bow	-5312
bur	-5313
che	-5314
coh	-5315
cur	-5316
cut	-5317
edi	-5318
ena	-5319
enh	-5320
eor	-5321
ern	-5322
eys	-5323
gon	-5324
han	-5325
hle	-5326
iar	-5327
ics	-5328
ida	-5329
ids	-5330
ief	-5331
inn	-5332
iod	-5333
iol	-5334
iop	-5335
ipe	-5336
ipl	-5337
itu	-5338
lam	-5339
lot	-5340
loy	-5341
mal	-5342
ock	-5343
ogn	-5344
olf	-5345
ony	-5346
oth	-5347
oto	-5348
ply	-5349
ray	-5350
rom	-5351
set	-5352
tah	-5353
ton	-5354
uls	-5355
vir	-5356
yri	-5357
zen	-5358
।""	-5359
ঁকি	-5360
কির	-5361
কৃত	-5362
গবি	-5363
গোর	-5364
চাই	-5365
ছুর	-5366
জুর	-5367
জের	-5368
টবল	-5369
টিত	-5370
টিন	-5371
ডিস	-5372
তেন	-5373
ত্স	-5374
থমে	-5375
থিও	-5376
দাম	-5377
ধিত	-5378
ধ্ব	-5379
ন্ব	-5380
পতি	-5381
পান	-5382
ফিক	-5383
ফোন	-5384
বর্	-5385
বাল	-5386
ভিং	-5387
মআর	-5388
মূহ	-5389
যদি	-5390
যান	-5391
যাব	-5392
রাশ	-5393
রীণ	-5394
রোধ	-5395
র্ণ	-5396
লিট	-5397
লির	-5398
শাক	-5399
aii	-5400
ঁচু	-5401
ভূত	-5402
শ্ম	-5403
শ্র	-5404
সকল	-5405
সাই	-5406
হেগ	-5407
াইফ	-5408
াকা	-5409
াটল	-5410
াবহ	-5411
াবী	-5412
াসন	-5413
াসপ	-5414
িওন	-5415
িডি	-5416
িফো	-5417
িবি	-5418
িরে	-5419
ির্	-5420
িলা	-5421
িলে	-5422
িসে	-5423
িসৌ	-5424
ীতি	-5425
ুখী	-5426
ূটন	-5427
েরে	-5428
োকে	-5429
ৌড়	-5430
্টা	-5431
্তো	-5432
্যব	-5433
্রণ	-5434
্লি	-5435
▁2.	-5436
▁28	-5437
▁32	-5438
▁39	-5439
▁50	-5440
▁ii	-5441
▁jr	-5442
▁li	-5443
▁ng	-5444
▁pa	-5445
▁sq	-5446
▁tv	-5447
▁অম	-5448
▁আউ	-5449
▁আহ	-5450
▁ইম	-5451
▁এথ	-5452
▁এফ	-5453
▁ওপ	-5454
▁গণ	-5455
▁গল	-5456
▁গে	-5457
▁ঘর	-5458
▁জি	-5459
▁তথ	-5460
▁তহ	-5461
▁নব	-5462
▁নর	-5463
▁পব	-5464
▁পু	-5465
▁মো	-5466
▁রঙ	-5467
▁লস	-5468
▁শৈ	-5469
▁হঠ	-5470
▁হর	-5471
▁হৃ	-5472
▁হে	-5473
aded	-5474
adic	-5475
agen	-5476
agos	-5477
aked	-5478
alem	-5479
alry	-5480
anes	-5481
aren	-5482
back	-5483
bers	-5484
case	-5485
cast	-5486
ceed	-5487
cher	-5488
cise	-5489
cked	-5490
comm	-5491
cont	-5492
ding	-5493
eles	-5494
ello	-5495
empt	-5496
enez	-5497
enge	-5498
eper	-5499
-19	-5500
2.3	-5501
erat	-5502
erus	-5503
etic	-5504
fall	-5505
gyal	-5506
gypt	-5507
hall	-5508
hood	-5509
ican	-5510
iest	-5511
imin	-5512
ingu	-5513
iple	-5514
isis	-5515
like	-5516
made	-5517
mail	-5518
mber	-5519
niqu	-5520
oded	-5521
olis	-5522
oses	-5523
ouds	-5524
oura	-5525
rael	-5526
rane	-5527
reng	-5528
rist	-5529
stic	-5530
sule	-5531
town	-5532
uary	-5533
ucid	-5534
ujah	-5535
ully	-5536
unte	-5537
urch	-5538
urer	-5539
vass	-5540
vere	-5541
vert	-5542
wise	-5543
ying	-5544
yond	-5545
ínos	-5546
অথবা	-5547
আমরা	-5548
কর্ম	-5549
কারে	-5550
কৃতি	-5551
কেটে	-5552
গম্য	-5553
গামি	-5554
গিয়	-5555
গ্রে	-5556
ঘাতী	-5557
চ্ছু	-5558
জীবন	-5559
জীবী	-5560
জ্জা	-5561
ঞ্চে	-5562
টাউন	-5563
ড়াই	-5564
তায়	-5565
ত্রে	-5566
থাযথ	-5567
দ্যু	-5568
নন্দ	-5569
পসুল	-5570
বকের	-5571
বলিক	-5572
বাহন	-5573
বাহী	-5574
ভাজন	-5575
মনের	-5576
যাপন	-5577
যোগী	-5578
রশিপ	-5579
র্নর	-5580
লেকজ	-5581
শনাল	-5582
শেষে	-5583
ষ্টি	-5584
সাথে	-5585
সারণ	-5586
াজ্ঞ	-5587
াড়ি	-5588
াদেশ	-5589
ানির	-5590
াপাগ	-5591
াপিত	-5592
ামার	-5593
ায়ে	-5594
ালাল	-5595
ালীন	-5596
াসিক	-5597
াহিত	-5598
িংটন	-5599
aska	-5600
grim	-5601
বাচক	-5602
িক্স	-5603
িটির	-5604
িণ্ড	-5605
িনের	-5606
িরাপ	-5607
িশের	-5608
িসের	-5609
ীব্র	-5610
ুখীন	-5611
ুরুষ	-5612
ুলাই	-5613
ুষার	-5614
ৃষ্ট	-5615
েক্ষ	-5616
েত্র	-5617
ৈর্য	-5618
োপেন	-5619
োমেন	-5620
োরিড	-5621
োর্ড	-5622
োস্ক	-5623
্টির	-5624
্বোড	-5625
্যাশ	-5626
্যুত	-5627
▁198	-5628
▁300	-5629
▁AOL	-5630
▁adj	-5631
▁adm	-5632
▁ago	-5633
▁ali	-5634
▁aol	-5635
▁ara	-5636
▁bad	-5637
▁ban	-5638
▁bce	-5639
▁boy	-5640
▁bur	-5641
▁caf	-5642
▁cat	-5643
▁cav	-5644
▁cho	-5645
▁cra	-5646
▁cub	-5647
▁cut	-5648
▁dan	-5649
▁div	-5650
▁ess	-5651
▁etc	-5652
▁eye	-5653
▁fav	-5654
▁fel	-5655
▁fit	-5656
▁flu	-5657
▁fur	-5658
▁fut	-5659
▁gla	-5660
▁got	-5661
▁gps	-5662
▁hop	-5663
▁hyd	-5664
▁jar	-5665
▁kal	-5666
▁las	-5667
▁lib	-5668
▁lin	-5669
▁lod	-5670
▁log	-5671
▁los	-5672
▁lun	-5673
▁men	-5674
▁mri	-5675
▁nad	-5676
▁nom	-5677
▁orb	-5678
▁pad	-5679
▁pit	-5680
▁sci	-5681
▁ter	-5682
▁yes	-5683
▁অপর	-5684
▁অবত	-5685
▁অবস	-5686
▁আকস	-5687
▁ইয়	-5688
▁ইসল	-5689
▁উড়	-5690
▁এইচ	-5691
▁এতই	-5692
▁ওলা	-5693
▁করব	-5694
▁কলে	-5695
▁কিউ	-5696
▁কুক	-5697
▁কৃত	-5698
▁কেপ	-5699
থিওপ	-5700
▁কোল	-5701
▁খরচ	-5702
▁খাঁ	-5703
▁গাল	-5704
▁গ্ল	-5705
▁ঘুম	-5706
▁চাপ	-5707
▁চীন	-5708
▁ছয়	-5709
▁জনগ	-5710
▁জমা	-5711
▁জাম	-5712
▁জিও	-5713
▁জেট	-5714
▁জেম	-5715
▁জোট	-5716
▁ডজন	-5717
▁ডিস	-5718
▁ডোম	-5719
▁তাক	-5720
▁তাপ	-5721
▁তুত	-5722
▁ত্র	-5723
▁থাই	-5724
▁থিম	-5725
▁দশক	-5726
▁দিল	-5727
▁ধরণ	-5728
▁ধাত	-5729
▁ধাপ	-5730
▁ধার	-5731
▁নিন	-5732
▁পাই	-5733
▁পেট	-5734
▁ফোক	-5735
▁বরা	-5736
▁বহু	-5737
▁বাঁ	-5738
▁বাদ	-5739
▁বাফ	-5740
▁বিন	-5741
▁বিব	-5742
▁বীম	-5743
▁বুধ	-5744
▁ভবন	-5745
▁ভরা	-5746
▁ভূখ	-5747
▁ভূত	-5748
▁ভেত	-5749
▁মতে	-5750
▁রেজ	-5751
▁লাল	-5752
▁শব্	-5753
▁সভা	-5754
▁সাজ	-5755
▁সার	-5756
▁সিন	-5757
▁সুপ	-5758
▁সুর	-5759
▁স্ল	-5760
▁হাউ	-5761
▁হিম	-5762
▁হেক	-5763
▁হেস	-5764
▁হোম	-5765
▁১০০	-5766
ached	-5767
acted	-5768
adian	-5769
ancou	-5770
andal	-5771
ander	-5772
anian	-5773
antic	-5774
arily	-5775
atory	-5776
aving	-5777
bodia	-5778
chest	-5779
count	-5780
craft	-5781
duced	-5782
ellig	-5783
enced	-5784
enses	-5785
enton	-5786
ffalo	-5787
force	-5788
gency	-5789
heast	-5790
iddle	-5791
iforn	-5792
ijing	-5793
illed	-5794
inity	-5795
iopia	-5796
iplom	-5797
iquid	-5798
irmed	-5799
itage	-5800
itect	-5801
itoes	-5802
itted	-5803
itude	-5804
light	-5805
lotte	-5806
marks	-5807
ology	-5808
osaur	-5809
ought	-5810
pared	-5811
phone	-5812
plays	-5813
ptoms	-5814
rated	-5815
right	-5816
rison	-5817
আয়ের	-5818
ইয়ের	-5819
করণের	-5820
কার্ক	-5821
ক্ষেপ	-5822
গগুলি	-5823
গুলিই	-5824
গেটিভ	-5825
চারের	-5826
চ্ছেন	-5827
জানের	-5828
জাহাজ	-5829
টারটি	-5830
ডাস্ট	-5831
ত্বের	-5832
দর্শন	-5833
দিনের	-5834
ন্দেহ	-5835
পাত্র	-5836
বস্থা	-5837
বাদের	-5838
বাহিক	-5839
বিধান	-5840
বিলের	-5841
বিশ্ব	-5842
মানের	-5843
মান্ড	-5844
ম্প্র	-5845
যানের	-5846
রিভাগ	-5847
শোধিত	-5848
সেরাট	-5849
স্টার	-5850
স্টের	-5851
স্তোন	-5852
াইকিং	-5853
াক্রম	-5854
াপত্য	-5855
ামর্শ	-5856
াসমূহ	-5857
িকেশন	-5858
িগুলি	-5859
িন্দু	-5860
িয়াও	-5861
িয়োগ	-5862
ুজালে	-5863
েক্ষা	-5864
েলাইট	-5865
্যানড	-5866
▁""""	-5867
▁100-	-5868
▁1995	-5869
▁1998	-5870
▁2004	-5871
▁2016	-5872
▁acqu	-5873
▁afgh	-5874
▁agre	-5875
▁ange	-5876
▁apps	-5877
▁aren	-5878
▁arts	-5879
▁azer	-5880
▁bars	-5881
▁bird	-5882
▁cape	-5883
▁cens	-5884
▁claw	-5885
▁cust	-5886
▁decl	-5887
▁drug	-5888
▁face	-5889
▁fell	-5890
▁foot	-5891
▁fuel	-5892
▁gest	-5893
▁gold	-5894
▁golf	-5895
▁gone	-5896
▁guru	-5897
▁harv	-5898
▁here	-5899
▁hike	-5900
▁holy	-5901
▁hurt	-5902
▁impl	-5903
▁inex	-5904
▁jail	-5905
▁join	-5906
▁july	-5907
▁lack	-5908
▁laws	-5909
▁lawy	-5910
▁lost	-5911
▁mart	-5912
▁neut	-5913
▁nine	-5914
▁nove	-5915
▁obsc	-5916
▁pace	-5917
▁page	-5918
▁palm	-5919
▁peak	-5920
▁port	-5921
▁pred	-5922
▁prix	-5923
▁prop	-5924
▁rang	-5925
▁room	-5926
▁safe	-5927
▁save	-5928
▁seek	-5929
▁seen	-5930
▁sens	-5931
▁sept	-5932
▁side	-5933
▁situ	-5934
▁sole	-5935
▁soph	-5936
▁spir	-5937
▁stop	-5938
▁stri	-5939
▁sust	-5940
▁swim	-5941
▁swit	-5942
▁tank	-5943
▁tool	-5944
▁trig	-5945
▁utah	-5946
▁valu	-5947
▁vill	-5948
▁weak	-5949
▁wedn	-5950
▁অতীত	-5951
▁অধীন	-5952
▁অন্ধ	-5953
▁অপ্র	-5954
▁অবধি	-5955
▁অভাব	-5956
▁অশ্ব	-5957
▁অস্ব	-5958
▁আগ্র	-5959
▁আজার	-5960
▁আধান	-5961
▁আনার	-5962
▁আরাম	-5963
▁আলোর	-5964
▁আসেন	-5965
▁ইন্ড	-5966
▁ঈশ্ব	-5967
▁উঁচু	-5968
▁উদ্ব	-5969
▁উন্ম	-5970
▁উৎসব	-5971
▁একটু	-5972
▁কথ্য	-5973
▁কর্ন	-5974
▁কাজে	-5975
▁কাটা	-5976
▁কায়	-5977
▁কারও	-5978
▁কূটন	-5979
▁কেলে	-5980
▁কোথা	-5981
▁কোর্	-5982
▁ক্রা	-5983
▁ক্রু	-5984
▁খুলে	-5985
▁খোঁজ	-5986
▁ঘিরে	-5987
▁জনের	-5988
▁জানে	-5989
▁জোরে	-5990
▁টিভি	-5991
▁ডাউন	-5992
▁তাতে	-5993
▁তেমন	-5994
▁দাবি	-5995
▁দোষী	-5996
▁দৌড়	-5997
▁দ্যা	-5998
▁নক্ষ	-5999
▁নথিভ	-6000
▁নদীর	-6001
▁নর্দ	-6002
▁নিচে	-6003
▁নেতা	-6004
▁নেয়	-6005
▁নৌকা	-6006
▁ন্যা	-6007
▁পত্র	-6008
▁পরেও	-6009
▁পাখি	-6010
▁পারি	-6011
▁পাসপ	-6012
▁পৃথক	-6013
▁পেতে	-6014
▁পেরে	-6015
▁প্যা	-6016
▁প্রত	-6017
▁প্রভ	-6018
▁ফাটল	-6019
▁বন্য	-6020
▁বরফে	-6021
▁বিগত	-6022
▁বিরল	-6023
▁বোমা	-6024
▁ভাড়	-6025
▁ভারী	-6026
▁ভাষী	-6027
▁মদ্য	-6028
▁মাঝে	-6029
▁মোটর	-6030
▁যাকে	-6031
▁যেটা	-6032
▁যেসব	-6033
▁রচনা	-6034
▁রপ্ত	-6035
▁রাজন	-6036
▁লাইট	-6037
▁ল্যা	-6038
▁সংকট	-6039
▁সঙ্ক	-6040
▁সঙ্গ	-6041
▁সাইট	-6042
▁সারা	-6043
▁স্কি	-6044
▁স্বে	-6045
▁হঠাৎ	-6046
▁হাইড	-6047
▁হাতে	-6048
▁হোয়	-6049
▁হ্রদ	-6050
aining	-6051
anches	-6052
antage	-6053
apagos	-6054
arable	-6055
arctic	-6056
astern	-6057
ellite	-6058
encing	-6059
engers	-6060
enzano	-6061
esters	-6062
gether	-6063
hletes	-6064
icated	-6065
income	-6066
insula	-6067
ippery	-6068
ishing	-6069
omenon	-6070
onance	-6071
orship	-6072
porary	-6073
portun	-6074
rowing	-6075
uelans	-6076
urance	-6077
ওয়েতে	-6078
ক্ষমতা	-6079
চ্ছাসে	-6080
দায়ের	-6081
দৃষ্টি	-6082
দ্বন্দ	-6083
ন্তরীণ	-6084
পশ্চিম	-6085
পসুলটি	-6086
পূর্বে	-6087
বৃত্তি	-6088
মাণবিক	-6089
মেয়াদ	-6090
ষ্ট্রে	-6091
স্পর্শ	-6092
স্বরূপ	-6093
াতাড়ি	-6094
ার্সেল	-6095
িকারিক	-6096
িফোর্ন	-6097
ুদ্রিক	-6098
েকেন্ড	-6099
েন্টহু	-6100
োগ্রাফ	-6101
োস্কোপ	-6102
্বীকার	-6103
▁absol	-6104
▁alcoh	-6105
▁appar	-6106
▁arias	-6107
▁attra	-6108
▁autom	-6109
▁birds	-6110
▁blade	-6111
▁blind	-6112
▁boots	-6113
▁brain	-6114
▁broad	-6115
▁climb	-6116
▁coast	-6117
▁corru	-6118
▁costs	-6119
▁egypt	-6120
▁fence	-6121
▁fewer	-6122
▁fifth	-6123
▁final	-6124
▁flags	-6125
▁focal	-6126
▁folds	-6127
▁force	-6128
▁fully	-6129
▁grown	-6130
▁heels	-6131
▁hindu	-6132
▁indus	-6133
▁islam	-6134
▁james	-6135
▁jerus	-6136
▁judge	-6137
▁limit	-6138
▁lucid	-6139
▁marri	-6140
▁mater	-6141
▁maybe	-6142
▁memor	-6143
▁minim	-6144
▁moose	-6145
▁mosqu	-6146
▁navig	-6147
▁notes	-6148
▁occup	-6149
▁outdo	-6150
▁perce	-6151
▁quest	-6152
▁reach	-6153
▁react	-6154
▁ready	-6155
▁relax	-6156
▁rooms	-6157
▁roots	-6158
▁rugby	-6159
▁ruins	-6160
▁rules	-6161
▁santa	-6162
▁serve	-6163
▁seven	-6164
▁shape	-6165
▁shows	-6166
▁stark	-6167
▁stars	-6168
▁steps	-6169
▁story	-6170
▁super	-6171
▁surve	-6172
▁taxes	-6173
▁teles	-6174
▁theme	-6175
▁thing	-6176
▁tombs	-6177
▁train	-6178
▁tried	-6179
▁tubes	-6180
▁turns	-6181
▁types	-6182
▁upper	-6183
▁venez	-6184
▁visas	-6185
▁voted	-6186
▁walls	-6187
▁waves	-6188
▁weigh	-6189
▁whose	-6190
▁অংশটি	-6191
▁অনন্য	-6192
▁অপরের	-6193
▁অ্যাড	-6194
▁অ্যাথ	-6195
▁অ্যাস	-6196
▁আনন্দ	-6197
▁আফগান	-6198
▁আলেকজ	-6199
▁উচ্ছে	-6200
▁উভয়ই	-6201
▁একদিন	-6202
▁এগুলো	-6203
▁এডিডি	-6204
▁করছিল	-6205
▁কারনে	-6206
▁কিছুর	-6207
▁কুড়ি	-6208
▁কোমেন	-6209
▁ক্যাস	-6210
▁ক্ষয়	-6211
▁গবেষণ	-6212
▁গায়ক	-6213
▁গার্ড	-6214
▁গেমের	-6215
▁গ্যাল	-6216
▁ঘটনার	-6217
▁চারটি	-6218
▁চালিত	-6219
▁জলপ্র	-6220
▁জুলাই	-6221
▁জ্বাল	-6222
▁ঝড়ের	-6223
▁ঝুঁকি	-6224
▁টেলিফ	-6225
▁ডিগ্র	-6226
▁ড্রাই	-6227
▁তীব্র	-6228
▁তীর্থ	-6229
▁তুষার	-6230
▁তৈরির	-6231
▁দশকের	-6232
▁দামের	-6233
▁দিকের	-6234
▁দেশকে	-6235
▁দেশটি	-6236
▁দৈনিক	-6237
▁ধৈর্য	-6238
▁নাবিক	-6239
▁নামেও	-6240
▁নামের	-6241
▁নিকটে	-6242
▁নিষেধ	-6243
▁পছন্দ	-6244
▁পরিসর	-6245
▁প্যাট	-6246
▁প্রবল	-6247
▁প্রশং	-6248
▁প্রিন	-6249
▁প্রেস	-6250
▁ফলাফল	-6251
▁ফোল্ড	-6252
▁বন্ধু	-6253
▁বর্গক	-6254
▁বাক্য	-6255
▁বাজার	-6256
▁বাধ্য	-6257
▁বার্ল	-6258
▁বিদ্র	-6259
▁বিবাহ	-6260
▁বিবিধ	-6261
▁বিয়ে	-6262
▁বেঁকে	-6263
▁বেঁচে	-6264
▁বেড়া	-6265
▁বোঝার	-6266
▁বোর্ড	-6267
▁ব্যথা	-6268
▁ব্রিজ	-6269
▁ভিতরে	-6270
▁ভিসার	-6271
▁মঞ্চে	-6272
▁মরসুম	-6273
▁মরিরি	-6274
▁মিনিট	-6275
▁মুখ্য	-6276
▁মুদ্র	-6277
▁যথাযথ	-6278
▁যাঁরা	-6279
▁যাচাই	-6280
▁যাযাব	-6281
▁রক্ষা	-6282
▁রাগবি	-6283
▁রাজার	-6284
▁রান্ন	-6285
▁লক্ষণ	-6286
▁লড়াই	-6287
▁লাভের	-6288
▁লুক্স	-6289
▁লোকের	-6290
▁শিখতে	-6291
▁শীতের	-6292
▁শুনতে	-6293
▁শ্বাস	-6294
▁সংবিধ	-6295
▁সমন্ব	-6296
▁সময়ই	-6297
▁সমাধি	-6298
▁সরঞ্জ	-6299
▁সাব্য	-6300
▁সুপার	-6301
▁সুস্থ	-6302
▁সেটার	-6303
▁সেন্স	-6304
▁সেপ্ট	-6305
▁স্কাই	-6306
▁স্তরে	-6307
▁স্যাট	-6308
▁হতাশা	-6309
▁হোস্ট	-6310
ability	-6311
atively	-6312
enhagen	-6313
enthood	-6314
eratops	-6315
ibility	-6316
ifornia	-6317
ilities	-6318
ionship	-6319
osphere	-6320
pective	-6321
ression	-6322
roscope	-6323
জ্ঞানিক	-6324
দ্যুতিক	-6325
বিজ্ঞান	-6326
মন্ত্রী	-6327
সম্পন্ন	-6328
ান্তরিত	-6329
িয়ানরা	-6330
ীয়ভাবে	-6331
ুয়েলার	-6332
েনজানোর	-6333
োপেনহেগ	-6334
্লিকেশন	-6335
▁advent	-6336
▁agents	-6337
▁applic	-6338
▁aspect	-6339
▁assess	-6340
▁assyri	-6341
▁bacter	-6342
▁battle	-6343
▁behind	-6344
▁berlin	-6345
▁beyond	-6346
▁blocks	-6347
▁budget	-6348
▁cancer	-6349
▁cannot	-6350
▁castle	-6351
▁christ	-6352
▁clouds	-6353
▁coffee	-6354
▁create	-6355
▁crisis	-6356
▁depend	-6357
▁detail	-6358
▁determ	-6359
▁device	-6360
▁diplom	-6361
▁divers	-6362
▁eighte	-6363
▁empire	-6364
▁engine	-6365
▁ensure	-6366
▁excess	-6367
▁festiv	-6368
▁filled	-6369
▁formed	-6370
▁fourth	-6371
▁future	-6372
▁headed	-6373
▁immedi	-6374
▁impact	-6375
▁impuls	-6376
▁israel	-6377
▁issued	-6378
▁killed	-6379
▁landsc	-6380
▁letter	-6381
▁liquid	-6382
▁marked	-6383
▁meteor	-6384
▁middle	-6385
▁monday	-6386
▁mystic	-6387
▁native	-6388
▁nature	-6389
▁object	-6390
▁parody	-6391
▁period	-6392
▁permit	-6393
▁phones	-6394
▁plants	-6395
▁pounds	-6396
▁prepar	-6397
▁prices	-6398
▁prison	-6399
▁pursue	-6400
▁racial	-6401
▁ratify	-6402
▁recall	-6403
▁recogn	-6404
▁repres	-6405
▁runoff	-6406
▁scored	-6407
▁seeing	-6408
▁showed	-6409
▁simply	-6410
▁skater	-6411
▁socket	-6412
▁sounds	-6413
▁spokes	-6414
▁sports	-6415
▁spread	-6416
▁stimul	-6417
▁streng	-6418
▁taught	-6419
▁thirty	-6420
▁twenty	-6421
▁unlike	-6422
▁valley	-6423
▁vancou	-6424
▁waters	-6425
▁wealth	-6426
▁অনলাইন	-6427
▁অনুরোধ	-6428
▁অভ্যাস	-6429
▁আগমনের	-6430
▁আর্মেন	-6431
▁ইংরেজি	-6432
▁ইউরোপে	-6433
▁উত্তরে	-6434
▁উদ্দীপ	-6435
▁উদ্বেগ	-6436
▁উদ্ভাব	-6437
▁উদ্ভিদ	-6438
▁উপায়ে	-6439
▁উল্কাপ	-6440
▁উৎপাদন	-6441
▁একসাথে	-6442
▁এজেন্ট	-6443
▁এস্তোন	-6444
▁কম্বোড	-6445
▁কাঠামো	-6446
▁কানাডা	-6447
▁ক্ষতির	-6448
▁খুঁজছে	-6449
▁খেয়াল	-6450
▁ঘটনায়	-6451
▁ঘণ্টার	-6452
▁ঘন্টার	-6453
▁ঘোড়ার	-6454
▁চার্লস	-6455
▁চালানো	-6456
▁চুক্তি	-6457
▁চেয়ার	-6458
▁চ্যালে	-6459
▁ছাড়াও	-6460
▁জানায়	-6461
▁জুনিয়	-6462
▁ট্র্যা	-6463
▁ঠিকানা	-6464
▁তথ্যের	-6465
▁তারিখে	-6466
▁দায়ের	-6467
▁দুর্নী	-6468
▁দেখায়	-6469
▁দেয়াল	-6470
▁দৈনন্দ	-6471
▁নিউক্ল	-6472
▁নিবন্ধ	-6473
▁নিয়েও	-6474
▁নিয়োগ	-6475
▁নির্গত	-6476
▁পবিত্র	-6477
▁পরিবহন	-6478
▁পাঁচটি	-6479
▁পাউন্ড	-6480
▁পানীয়	-6481
▁পাবলিক	-6482
▁পার্টি	-6483
▁পুরানো	-6484
▁পৃথিবী	-6485
▁পৌঁছতে	-6486
▁প্রচুর	-6487
▁প্রথমে	-6488
▁বর্ধিত	-6489
▁বিপর্য	-6490
▁বিশ্বে	-6491
▁বোঝায়	-6492
▁ব্যাধি	-6493
▁ভয়াবহ	-6494
▁মনোযোগ	-6495
▁মহাসাগ	-6496
▁মেট্রো	-6497
▁যাত্রা	-6498
▁যায়নি	-6499
▁যেগুলি	-6500
▁রাউন্ড	-6501
▁রাখবেন	-6502
▁রাস্তা	-6503
▁শব্দটি	-6504
▁শব্দের	-6505
▁শরীরের	-6506
▁শুরুতে	-6507
▁শ্রেণি	-6508
▁সংখ্যক	-6509
▁সন্দেহ	-6510
▁সবসময়	-6511
▁সমৃদ্ধ	-6512
▁সম্মান	-6513
▁সরকারি	-6514
▁সরিয়ে	-6515
▁সামরিক	-6516
▁সুইজার	-6517
▁সুন্দর	-6518
▁সেগুলো	-6519
▁সোমবার	-6520
▁হিন্দু	-6521
essional	-6522
fortable	-6523
itecture	-6524
iversary	-6525
izations	-6526
ological	-6527
ximately	-6528
য়োজনীয়	-6529
িয়াকলাপ	-6530
▁achieve	-6531
▁actions	-6532
▁affects	-6533
▁african	-6534
▁assured	-6535
▁attempt	-6536
▁battles	-6537
▁beijing	-6538
▁belgium	-6539
▁believe	-6540
▁besides	-6541
▁billion	-6542
▁borders	-6543
▁brother	-6544
▁buffalo	-6545
▁calling	-6546
▁capable	-6547
▁capsule	-6548
▁cavalry	-6549
▁charles	-6550
▁cheaper	-6551
▁claimed	-6552
▁college	-6553
▁conserv	-6554
▁contain	-6555
▁content	-6556
▁convent	-6557
▁covered	-6558
▁crowded	-6559
▁current	-6560
▁drivers	-6561
▁explore	-6562
▁federal	-6563
▁flights	-6564
▁florida	-6565
▁friends	-6566
▁gardens	-6567
▁gesture	-6568
▁granted	-6569
▁highest	-6570
▁housing	-6571
▁initial	-6572
▁insight	-6573
▁inspect	-6574
▁january	-6575
▁learned	-6576
▁meaning	-6577
▁mission	-6578
▁nomadic	-6579
▁pacific	-6580
▁passing	-6581
▁pattern	-6582
▁photons	-6583
▁picture	-6584
▁pilgrim	-6585
▁plateau	-6586
▁predict	-6587
▁prevent	-6588
▁protect	-6589
▁reflect	-6590
▁routine	-6591
▁russian	-6592
▁serious	-6593
▁setting	-6594
▁shorter	-6595
▁shouldn	-6596
▁species	-6597
▁studied	-6598
▁tuesday	-6599
▁typical	-6600
▁victory	-6601
▁volunte	-6602
▁walking	-6603
▁weather	-6604
▁western	-6605
▁windows	-6606
▁অক্টোবর	-6607
▁অঞ্চলটি	-6608
▁অণুগুলি	-6609
▁অনুসারে	-6610
▁অপরিচিত	-6611
▁অশ্বারো	-6612
▁অসুবিধা	-6613
▁অ্যাঞ্জ	-6614
▁অ্যাপার	-6615
▁আইনজীবী	-6616
▁আত্মীয়	-6617
▁আমেরিকা	-6618
▁উচ্চারণ	-6619
▁উড়িয়ে	-6620
▁উন্নয়ন	-6621
▁উপদ্বীপ	-6622
▁উপরিভাগ	-6623
▁উপস্থিত	-6624
▁কমিশনার	-6625
▁করেছিলো	-6626
▁কোষগুলি	-6627
▁ক্যান্স	-6628
▁ক্লান্ত	-6629
▁খাওয়ার	-6630
▁খাবারের	-6631
▁গন্তব্য	-6632
▁গ্রেপ্ত	-6633
▁চালানোর	-6634
▁জানানোর	-6635
▁জাপানের	-6636
▁তদন্তের	-6637
▁তহবিলের	-6638
▁দেশগুলো	-6639
▁দৈর্ঘ্য	-6640
▁দ্বীপের	-6641
▁নভেম্বর	-6642
▁নেগেটিভ	-6643
▁পরামর্শ	-6644
▁পর্যায়	-6645
▁পশ্চিমা	-6646
▁পার্টির	-6647
▁পালিয়ে	-6648
▁পুনর্নি	-6649
▁পেশাদার	-6650
▁প্রতিনি	-6651
▁প্রাপ্ত	-6652
▁প্রোগ্র	-6653
▁ফিরিয়ে	-6654
▁বার্সেল	-6655
▁বাল্বের	-6656
▁বাহ্যিক	-6657
▁বিপক্ষে	-6658
▁বিভাগের	-6659
▁বিমানের	-6660
▁বিস্তার	-6661
▁ব্ল্যাক	-6662
▁ভালভাবে	-6663
▁মানুষকে	-6664
▁যানবাহন	-6665
▁রয়্যাল	-6666
▁রাজধানী	-6667
▁রোগীদের	-6668
▁ল্যাটিন	-6669
▁সংগঠনের	-6670
▁সংযুক্ত	-6671
▁সপ্তাহে	-6672
▁সম্পন্ন	-6673
▁সম্পাদন	-6674
▁সাম্প্র	-6675
▁সুবিধার	-6676
▁স্টার্ক	-6677
▁স্থানটি	-6678
▁স্থায়ী	-6679
▁হয়েছেন	-6680
▁হাওয়াই	-6681
▁হারিয়ে	-6682
▁হোয়াইট	-6683
▁accident	-6684
▁accommod	-6685
▁addition	-6686
▁affected	-6687
▁anything	-6688
▁athletes	-6689
▁atlantic	-6690
▁attended	-6691
▁attitude	-6692
▁bringing	-6693
▁cambodia	-6694
▁carrying	-6695
▁category	-6696
▁chairman	-6697
▁climates	-6698
▁composed	-6699
▁consists	-6700
▁costello	-6701
▁crossing	-6702
▁decision	-6703
▁designed	-6704
▁directly	-6705
▁discover	-6706
▁displays	-6707
▁drinking	-6708
▁economic	-6709
▁election	-6710
▁entering	-6711
▁ethiopia	-6712
▁expected	-6713
▁exploded	-6714
▁exposure	-6715
▁followed	-6716
▁fortress	-6717
▁governor	-6718
▁heritage	-6719
▁increase	-6720
▁injuries	-6721
▁intellig	-6722
▁magnetic	-6723
▁migrated	-6724
▁military	-6725
▁multiple	-6726
▁offering	-6727
▁official	-6728
▁opportun	-6729
▁patients	-6730
▁peaceful	-6731
▁position	-6732
▁pressure	-6733
▁protests	-6734
▁referred	-6735
▁restrict	-6736
▁separate	-6737
▁shooting	-6738
▁slippery	-6739
▁standing	-6740
▁symptoms	-6741
▁throwing	-6742
▁together	-6743
▁training	-6744
▁websites	-6745
▁অধিগ্রহণ	-6746
▁অর্থনীতি	-6747
▁অস্তিত্ব	-6748
▁অস্বীকার	-6749
▁আটলান্টা	-6750
▁আধিকারিক	-6751
▁আবহাওয়া	-6752
▁আশেপাশের	-6753
▁ইতিমধ্যে	-6754
▁উচ্ছেদের	-6755
▁উন্মুক্ত	-6756
▁ঐতিহাসিক	-6757
▁কেনিয়ার	-6758
▁গ্রাফিতি	-6759
▁জেরুজালে	-6760
▁ট্যাক্সি	-6761
▁তালিকায়	-6762
▁তুরস্কের	-6763
▁দিয়েছেন	-6764
▁দেশগুলির	-6765
▁নর্দার্ন	-6766
▁নির্বাচন	-6767
▁ন্যাশনাল	-6768
▁পড়াশোনা	-6769
▁পরিচালিত	-6770
▁পরিদর্শন	-6771
▁পরিষ্কার	-6772
▁পরীক্ষার	-6773
▁পর্যায়ে	-6774
▁পাসপোর্ট	-6775
▁পাহাড়ের	-6776
▁প্ল্যানড	-6777
▁ফটোগ্রাফ	-6778
▁বাসিন্দা	-6779
▁বিজ্ঞানী	-6780
▁ব্যবসায়	-6781
▁ব্যর্থতা	-6782
▁ভিত্তিতে	-6783
▁মঙ্গলবার	-6784
▁মন্দিরের	-6785
▁মাত্রায়	-6786
▁মুখপাত্র	-6787
▁মুহূর্তে	-6788
▁রাশিয়ান	-6789
▁শীতকালীন	-6790
▁সংক্রামক	-6791
▁সংস্পর্শ	-6792
▁সপ্তাহের	-6793
▁সমস্যাটি	-6794
▁সমুদ্রের	-6795
▁সম্মুখীন	-6796
▁সেখানকার	-6797
▁স্থাপত্য	-6798
▁স্বাক্ষর	-6799
▁স্বীকৃতি	-6800
▁alexander	-6801
▁apartment	-6802
▁brazilian	-6803
▁buildings	-6804
▁challenge	-6805
▁character	-6806
▁charlotte	-6807
▁committee	-6808
▁companies	-6809
▁computers	-6810
▁confirmed	-6811
▁connected	-6812
▁documents	-6813
▁elsewhere	-6814
▁equipment	-6815
▁galapagos	-6816
▁jerusalem	-6817
▁landmarks	-6818
▁launching	-6819
▁northeast	-6820
▁northwest	-6821
▁operation	-6822
▁otherwise	-6823
▁peninsula	-6824
▁performed	-6825
▁positions	-6826
▁practices	-6827
▁resonance	-6828
▁satellite	-6829
▁september	-6830
▁statement	-6831
▁stereotyp	-6832
▁suspected	-6833
▁temporary	-6834
▁tornadoes	-6835
▁travelers	-6836
▁vancouver	-6837
▁wednesday	-6838
▁whitehall	-6839
▁অপরিশোধিত	-6840
▁অলিম্পিকে	-6841
▁আবহাওয়ার	-6842
▁আলেকজান্ড	-6843
▁কেলেঙ্কার	-6844
▁চ্যালেঞ্জ	-6845
▁জানিয়েছে	-6846
▁জিনিসগুলি	-6847
▁নিষেধাজ্ঞ	-6848
▁পারমাণবিক	-6849
▁প্রশিক্ষণ	-6850
▁প্রস্তুতি	-6851
▁প্রাণীদের	-6852
▁বিভ্রান্ত	-6853
▁বিমানবন্দ	-6854
▁বেলজিয়াম	-6855
▁বৈজ্ঞানিক	-6856
▁বৈদ্যুতিক	-6857
▁বৈশিষ্ট্য	-6858
▁সংস্কৃতির	-6859
▁সামুদ্রিক	-6860
▁সুবিধাজনক	-6861
▁সেন্সরশিপ	-6862
▁স্কেটারটি	-6863
▁স্বাধীনতা	-6864
▁attraction	-6865
▁california	-6866
▁censorship	-6867
▁comparable	-6868
▁connection	-6869
▁copenhagen	-6870
▁corruption	-6871
▁depression	-6872
▁earthquake	-6873
▁importance	-6874
▁literature	-6875
▁mosquitoes	-6876
▁officially	-6877
▁parenthood	-6878
▁passengers	-6879
▁phenomenon	-6880
▁protesters	-6881
▁provenzano	-6882
▁relatively	-6883
▁scientific	-6884
▁succession	-6885
▁অলিম্পিকের	-6886
▁ঐতিহ্যবাহী	-6887
▁কম্বোডিয়া	-6888
▁কেন্দ্রীয়	-6889
▁ক্যাপসুলটি	-6890
▁গিয়েছিলেন	-6891
▁জানিয়েছেন	-6892
▁ট্রাইসেরাট	-6893
▁তাড়াতাড়ি	-6894
▁পর্যবেক্ষণ	-6895
▁পেয়েছিলেন	-6896
▁প্রতিবেদনে	-6897
▁প্রতিষ্ঠিত	-6898
▁শিক্ষামূলক	-6899
▁সরবরাহকারী	-6900
▁সীমাবদ্ধতা	-6901
▁সেপ্টেম্বর	-6902
▁স্পষ্টভাবে	-6903
▁স্বাধীনতার	-6904
▁স্বেচ্ছাসে	-6905
▁স্যাটেলাইট	-6906
▁anniversary	-6907
▁development	-6908
▁differently	-6909
▁governments	-6910
▁immediately	-6911
▁institution	-6912
▁performance	-6913
▁requirement	-6914
▁triceratops	-6915
▁venezuelans	-6916
▁ক্যালিফোর্ন	-6917
▁ক্রিয়াকলাপ	-6918
▁চেয়ারম্যান	-6919
▁পাকিস্তানের	-6920
▁প্রতিদ্বন্দ	-6921
▁বৃষ্টিপাতের	-6922
▁মন্দিরগুলোর	-6923
▁লুক্সেমবার্	-6924
▁শান্তিপূর্ণ	-6925
▁architecture	-6926
▁championship	-6927
▁civilisation	-6928
▁civilization	-6929
▁constitution	-6930
▁dramatically	-6931
▁professional	-6932
▁specifically	-6933
▁spokesperson	-6934
▁উত্তরাধিকারী	-6935
▁প্রতিযোগিতার	-6936
▁প্রতিষ্ঠানের	-6937
▁বিশ্বযুদ্ধের	-6938
▁সম্পূর্ণভাবে	-6939
▁সম্প্রদায়ের	-6940
▁approximately	-6941
▁communication	-6942
▁investigating	-6943
▁investigation	-6944
▁participating	-6945
▁গ্রিনল্যান্ডে	-6946
▁দর্শনার্থীদের	-6947
▁বর্গকিলোমিটার	-6948
▁চ্যাম্পিয়নশিপ	-6949
▁যুক্তরাষ্ট্রের	-6950
▁যুক্তরাষ্ট্রীয়	-6951
$1	-6952
''	-6953
-9	-6954
.,	-6955
.3	-6956
1.	-6957
13	-6958
3.	-6959
35	-6960
4,	-6961
44	-6962
5,	-6963
60	-6964
69	-6965
8.	-6966
90	-6967
CA	-6968
EM	-6969
GP	-6970
KV	-6971
SP	-6972
UT	-6973
ba	-6974
bb	-6975
bi	-6976
dd	-6977
dr	-6978
ev	-6979
ez	-6980
gp	-6981
hi	-6982
hr	-6983
ji	-6984
kg	-6985
li	-6986
lt	-6987
ma	-6988
my	-6989
ni	-6990
ny	-6991
oc	-6992
pa	-6993
sk	-6994
ss	-6995
tp	-6996
uz	-6997
vd	-6998
wh	-6999
gn	-7000
km	-7001
ym	-7002
za	-7003
ঁজ	-7004
ঃস	-7005
অব	-7006
আল	-7007
ইং	-7008
উথ	-7009
এক	-7010
গজ	-7011
গন	-7012
গভ	-7013
গি	-7014
ঘন	-7015
চল	-7016
চি	-7017
জক	-7018
জম	-7019
টো	-7020
ডক	-7021
ঢ়	-7022
তন	-7023
দৈ	-7024
নত	-7025
পথ	-7026
বক	-7027
বদ	-7028
যা	-7029
রং	-7030
শল	-7031
শু	-7032
সক	-7033
হর	-7034
হা	-7035
িঁ	-7036
িঝ	-7037
িঠ	-7038
ীজ	-7039
ীড	-7040
ূন	-7041
ৃণ	-7042
ৃহ	-7043
েউ	-7044
েভ	-7045
্ণ	-7046
ৎপ	-7047
১০	-7048
২২	-7049
২৯	-7050
৪৭	-7051
৪৮	-7052
৭৩	-7053
▁&	-7054
▁.	-7055
▁C	-7056
▁D	-7057
▁N	-7058
▁P	-7059
▁£	-7060
▁ঊ	-7061
▁ঋ	-7062
+1)	-7063
.34	-7064
acu	-7065
adv	-7066
aki	-7067
ama	-7068
anf	-7069
ara	-7070
asv	-7071
aus	-7072
ban	-7073
bay	-7074
cap	-7075
chk	-7076
ctv	-7077
cum	-7078
dom	-7079
dri	-7080
ech	-7081
eds	-7082
ery	-7083
eti	-7084
hal	-7085
hel	-7086
iel	-7087
ifi	-7088
igu	-7089
irs	-7090
isp	-7091
jab	-7092
jan	-7093
jet	-7094
ken	-7095
ket	-7096
las	-7097
mia	-7098
min	-7099
300	-7100
400	-7101
fri	-7102
lla	-7103
mit	-7104
nal	-7105
nom	-7106
ode	-7107
oll	-7108
olo	-7109
oon	-7110
osa	-7111
ote	-7112
ped	-7113
pol	-7114
pre	-7115
put	-7116
rad	-7117
rag	-7118
raq	-7119
rie	-7120
ril	-7121
sex	-7122
sie	-7123
sip	-7124
son	-7125
tal	-7126
tod	-7127
top	-7128
uck	-7129
ued	-7130
uer	-7131
uff	-7132
uge	-7133
uit	-7134
vid	-7135
wal	-7136
xas	-7137
xin	-7138
আমি	-7139
উটি	-7140
কিন	-7141
কেত	-7142
গতি	-7143
গার	-7144
চয়	-7145
টাল	-7146
টিক	-7147
টেন	-7148
ডকে	-7149
ড়ক	-7150
ড্র	-7151
ণকে	-7152
ণার	-7153
ণ্য	-7154
তবে	-7155
থাম	-7156
দিক	-7157
দির	-7158
দেন	-7159
দ্দ	-7160
নবো	-7161
নিজ	-7162
ন্থ	-7163
পনা	-7164
পনি	-7165
পুর	-7166
পুল	-7167
প্প	-7168
ফটি	-7169
ফলে	-7170
ফেন	-7171
ফের	-7172
বাই	-7173
বীণ	-7174
বুল	-7175
বের	-7176
ভির	-7177
ভিস	-7178
মনী	-7179
মার	-7180
মিশ	-7181
য়ং	-7182
য়গ	-7183
য়া	-7184
রিও	-7185
রীর	-7186
র্গ	-7187
র্ভ	-7188
লেট	-7189
শার	-7190
শাস	-7191
শিত	-7192
সিত	-7193
সেল	-7194
সোন	-7195
াকর	-7196
াকি	-7197
াগর	-7198
াতক	-7199
cip	-7200
fia	-7201
hod	-7202
oci	-7203
pap	-7204
গরি	-7205
ননা	-7206
ফ্ল	-7207
মাপ	-7208
রীচ	-7209
শুম	-7210
াতা	-7211
ানী	-7212
ামা	-7213
ামে	-7214
ারপ	-7215
াসহ	-7216
িনা	-7217
িন্	-7218
িমে	-7219
িরো	-7220
ীবা	-7221
ুটি	-7222
েরো	-7223
োগত	-7224
োটো	-7225
োডি	-7226
োলন	-7227
োলো	-7228
্টম	-7229
্ধব	-7230
্নত	-7231
্নে	-7232
্বল	-7233
০তম	-7234
৫০০	-7235
▁''	-7236
▁)।	-7237
▁12	-7238
▁13	-7239
▁1:	-7240
▁37	-7241
▁53	-7242
▁83	-7243
▁du	-7244
▁dz	-7245
▁er	-7246
▁fi	-7247
▁ht	-7248
▁hy	-7249
▁id	-7250
▁kn	-7251
▁kr	-7252
▁ky	-7253
▁od	-7254
▁um	-7255
▁অর	-7256
▁অল	-7257
▁আণ	-7258
▁এভ	-7259
▁এশ	-7260
▁ওন	-7261
▁ওস	-7262
▁কং	-7263
▁কৃ	-7264
▁কৌ	-7265
▁চর	-7266
▁ছব	-7267
▁ছু	-7268
▁জং	-7269
▁টে	-7270
▁ডল	-7271
▁তম	-7272
▁নখ	-7273
▁পজ	-7274
▁ব্	-7275
▁ভর	-7276
▁ভৌ	-7277
▁মঠ	-7278
▁মড	-7279
▁মস	-7280
▁রথ	-7281
▁রস	-7282
▁রহ	-7283
▁রি	-7284
▁লো	-7285
▁শি	-7286
▁সো	-7287
▁হও	-7288
▁হু	-7289
▁৬৪	-7290
adus	-7291
akis	-7292
also	-7293
ania	-7294
anic	-7295
arps	-7296
asis	-7297
athe	-7298
atto	-7299
গমন	-7300
পিট	-7301
াপক	-7302
্দর	-7303
▁ip	-7304
auna	-7305
avid	-7306
ayat	-7307
band	-7308
ched	-7309
ches	-7310
chus	-7311
chyd	-7312
ctor	-7313
dain	-7314
edom	-7315
eled	-7316
elve	-7317
enly	-7318
eras	-7319
esco	-7320
esia	-7321
gage	-7322
habd	-7323
hand	-7324
icip	-7325
icle	-7326
idal	-7327
ided	-7328
iers	-7329
ietn	-7330
igen	-7331
ilos	-7332
iots	-7333
ique	-7334
ises	-7335
itan	-7336
ivan	-7337
izes	-7338
jong	-7339
ldom	-7340
leus	-7341
lies	-7342
lred	-7343
mand	-7344
misp	-7345
ners	-7346
nson	-7347
ollo	-7348
omot	-7349
onic	-7350
onle	-7351
onso	-7352
opou	-7353
orse	-7354
osis	-7355
ouch	-7356
ouis	-7357
over	-7358
pian	-7359
pped	-7360
pted	-7361
rapt	-7362
rate	-7363
reen	-7364
roat	-7365
rost	-7366
ruck	-7367
site	-7368
ster	-7369
teen	-7370
thur	-7371
ties	-7372
time	-7373
uche	-7374
uled	-7375
umes	-7376
unce	-7377
uted	-7378
vity	-7379
wart	-7380
ঁতার	-7381
করের	-7382
কায়	-7383
কারণ	-7384
কারি	-7385
গতির	-7386
ঞ্জা	-7387
টাইপ	-7388
টাতে	-7389
টানো	-7390
টিয়	-7391
ড়ের	-7392
ডায়	-7393
ণব্য	-7394
তবার	-7395
তাকে	-7396
তুটি	-7397
দণ্ড	-7398
দায়	-7399
াগত	-7400
িংহ	-7401
▁3%	-7402
▁36	-7403
izan	-7404
ject	-7405
sper	-7406
zens	-7407
ঘন্ট	-7408
ট্রন	-7409
দলের	-7410
দেশে	-7411
নখাম	-7412
নায়	-7413
নেরো	-7414
ন্তি	-7415
ন্থা	-7416
ন্দন	-7417
ন্যপ	-7418
পতির	-7419
পন্থ	-7420
প্রে	-7421
ফতার	-7422
বস্ত	-7423
বায়	-7424
বাসী	-7425
বিড়	-7426
বীয়	-7427
বেশে	-7428
ভেদে	-7429
মুখী	-7430
য়টি	-7431
য়লা	-7432
য়েত	-7433
য়েন	-7434
য়েশ	-7435
রীয়	-7436
শ্মি	-7437
শ্রম	-7438
ষ্ঠী	-7439
াকৃত	-7440
াকের	-7441
াতিন	-7442
াদিত	-7443
ানবে	-7444
ানার	-7445
ানিক	-7446
ানুন	-7447
ান্দ	-7448
াব্দ	-7449
াম্প	-7450
ারটি	-7451
ার্চ	-7452
ার্ট	-7453
াশার	-7454
াস্ক	-7455
িউশন	-7456
িকড়	-7457
িকতা	-7458
িকরা	-7459
িক্ট	-7460
িখিত	-7461
িতিশ	-7462
িত্ত	-7463
িনেশ	-7464
িলার	-7465
িলিত	-7466
িষ্ট	-7467
িসৌধ	-7468
ীভূত	-7469
ুরির	-7470
ুরুর	-7471
ুষিত	-7472
ুষ্ঠ	-7473
ূন্য	-7474
েতার	-7475
েনিজ	-7476
েলের	-7477
োকার	-7478
োনার	-7479
োরার	-7480
োলিন	-7481
োসকে	-7482
্কের	-7483
্টিং	-7484
্টিম	-7485
্তার	-7486
্বার	-7487
্যকর	-7488
্যাগ	-7489
্যাম	-7490
্রাল	-7491
্রিম	-7492
্রির	-7493
্রেড	-7494
্রেস	-7495
▁1.2	-7496
▁12.	-7497
▁120	-7498
▁15,	-7499
ঁটে	-7500
াঁক	-7501
িওর	-7502
িমি	-7503
icts	-7504
orph	-7505
roph	-7506
ঞ্চি	-7507
টিকা	-7508
বলীল	-7509
বেশন	-7510
বেশি	-7511
াঁটি	-7512
াইটে	-7513
িটিভ	-7514
িবাস	-7515
েমোর	-7516
োপোল	-7517
▁105	-7518
▁164	-7519
▁220	-7520
▁323	-7521
▁700	-7522
▁ACT	-7523
▁abu	-7524
▁alg	-7525
▁apt	-7526
▁ast	-7527
▁ate	-7528
▁atm	-7529
▁bag	-7530
▁bit	-7531
▁bob	-7532
▁bol	-7533
▁bow	-7534
▁cab	-7535
▁cle	-7536
▁den	-7537
▁dia	-7538
▁die	-7539
▁dig	-7540
▁dra	-7541
▁eat	-7542
▁exc	-7543
▁fee	-7544
▁fer	-7545
▁fig	-7546
▁gar	-7547
▁god	-7548
▁gun	-7549
▁haw	-7550
▁jon	-7551
▁kar	-7552
▁kph	-7553
▁lab	-7554
▁lad	-7555
▁lap	-7556
▁lif	-7557
▁mac	-7558
▁map	-7559
▁mix	-7560
▁mod	-7561
▁mom	-7562
▁mph	-7563
▁mum	-7564
▁nag	-7565
▁nam	-7566
▁nev	-7567
▁nit	-7568
▁ola	-7569
▁opp	-7570
▁ord	-7571
▁ore	-7572
▁ove	-7573
▁pap	-7574
▁pic	-7575
▁pus	-7576
▁ran	-7577
▁rid	-7578
▁roe	-7579
▁rog	-7580
▁sal	-7581
▁sap	-7582
▁saw	-7583
▁sed	-7584
▁sen	-7585
▁str	-7586
▁unw	-7587
▁vel	-7588
▁vic	-7589
▁wet	-7590
▁অরি	-7591
▁আংশ	-7592
▁আইও	-7593
▁আগত	-7594
▁আড়	-7595
▁আদি	-7596
▁আবে	-7597
▁আ্য	-7598
▁ইবে	-7599
▁46	-7600
▁49	-7601
▁ঝল	-7602
ashi	-7603
hips	-7604
ogen	-7605
ফেরা	-7606
ব্দে	-7607
মেরা	-7608
সাগর	-7609
াধিক	-7610
ীর্ণ	-7611
▁35°	-7612
▁ইমি	-7613
▁উপল	-7614
▁একা	-7615
▁এতে	-7616
▁এরও	-7617
▁এলে	-7618
▁ওনে	-7619
▁কমে	-7620
▁করল	-7621
▁কলা	-7622
▁কের	-7623
▁কোচ	-7624
▁কোড	-7625
▁কোর	-7626
▁খাত	-7627
▁খাদ	-7628
▁খাল	-7629
▁খেত	-7630
▁গান	-7631
▁গেল	-7632
▁ঘুষ	-7633
▁চিপ	-7634
▁চেক	-7635
▁ছড়	-7636
▁জিন	-7637
▁জিম	-7638
▁জুড	-7639
▁জেফ	-7640
▁জেল	-7641
▁ঝর্	-7642
▁ঝাব	-7643
▁টার	-7644
▁টির	-7645
▁ডাঃ	-7646
▁ঢুক	-7647
▁তৈল	-7648
▁দলে	-7649
▁দান	-7650
▁দাম	-7651
▁দার	-7652
▁দেন	-7653
▁দেব	-7654
▁দোক	-7655
▁ধর্	-7656
▁ধাক	-7657
▁ধীর	-7658
▁নাক	-7659
▁নাগ	-7660
▁নাদ	-7661
▁নান	-7662
▁নোট	-7663
▁ন্য	-7664
▁পদচ	-7665
▁পাও	-7666
▁ফুট	-7667
▁ফুল	-7668
▁ফেন	-7669
▁ফের	-7670
▁বংশ	-7671
▁বরং	-7672
▁বাক	-7673
▁বাম	-7674
▁বিগ	-7675
▁বেই	-7676
▁ভাই	-7677
▁ভিজ	-7678
▁ভেল	-7679
▁ভোর	-7680
▁মাছ	-7681
▁মাপ	-7682
▁মিস	-7683
▁মুন	-7684
▁মুস	-7685
▁মেড	-7686
▁যাত	-7687
▁রবি	-7688
▁রাত	-7689
▁রিও	-7690
▁রিজ	-7691
▁রুম	-7692
▁লাঠ	-7693
▁লাস	-7694
▁লিক	-7695
▁লিব	-7696
▁লুই	-7697
▁লেন	-7698
▁শনি	-7699
দূর	-7700
▁54	-7701
▁55	-7702
▁69	-7703
oons	-7704
rene	-7705
ঙ্কা	-7706
ৃষ্ণ	-7707
▁dvd	-7708
▁মিড	-7709
▁শির	-7710
▁সংস	-7711
▁সন্	-7712
▁সমক	-7713
▁সরা	-7714
▁সরে	-7715
▁সাফ	-7716
▁সাল	-7717
▁সুল	-7718
▁হাল	-7719
▁হাস	-7720
▁হিল	-7721
▁হুই	-7722
▁৮০০	-7723
acing	-7724
adays	-7725
apons	-7726
apore	-7727
arded	-7728
arest	-7729
aries	-7730
arter	-7731
ashed	-7732
asion	-7733
atham	-7734
awang	-7735
based	-7736
celed	-7737
ciers	-7738
ckets	-7739
class	-7740
const	-7741
ctors	-7742
cular	-7743
eless	-7744
ening	-7745
going	-7746
icide	-7747
icine	-7748
icing	-7749
iding	-7750
ieces	-7751
ielle	-7752
igned	-7753
imate	-7754
inent	-7755
inese	-7756
ishes	-7757
ising	-7758
istur	-7759
itors	-7760
itual	-7761
ivity	-7762
kgyal	-7763
leged	-7764
night	-7765
olars	-7766
ondon	-7767
onent	-7768
onian	-7769
orean	-7770
orite	-7771
osses	-7772
ossil	-7773
pered	-7774
queez	-7775
ulate	-7776
using	-7777
water	-7778
ওয়াক	-7779
ওয়াল	-7780
কারীর	-7781
কার্য	-7782
কালের	-7783
ক্তিক	-7784
ক্রিপ	-7785
ক্রের	-7786
গোষ্ঠ	-7787
ঘাতের	-7788
ঙ্গুর	-7789
ঙ্গের	-7790
জেন্ট	-7791
জ্যের	-7792
ঞ্জার	-7793
ণয়ের	-7794
ত্যাগ	-7795
থার্ম	-7796
দানের	-7797
দেশের	-7798
ধরনের	-7799
ext	-7800
enef	-7801
enza	-7802
gets	-7803
ilty	-7804
kets	-7805
ramm	-7806
বাসন	-7807
েনেস	-7808
▁(36	-7809
▁ঘাট	-7810
▁ছোঁ	-7811
▁বীজ	-7812
▁লাগ	-7813
▁সফল	-7814
▁১৯৯	-7815
there	-7816
জাতির	-7817
ণ্ডিত	-7818
নিহিত	-7819
নেস্ক	-7820
ন্ডনে	-7821
ন্দের	-7822
ফোর্ড	-7823
বাহিত	-7824
বীদের	-7825
বোর্ড	-7826
ব্যাপ	-7827
ভাগেই	-7828
ভাবনা	-7829
ভাবের	-7830
ভিয়া	-7831
ভূমির	-7832
ভ্যান	-7833
মাধ্য	-7834
ম্পান	-7835
যুগের	-7836
রায়ে	-7837
রিচিত	-7838
র্ধ্ব	-7839
র্মাণ	-7840
লাইনে	-7841
ল্পিক	-7842
শক্তি	-7843
শ্যের	-7844
ষিদ্ধ	-7845
ষ্ক্র	-7846
ষ্টের	-7847
সজ্জা	-7848
স্টোন	-7849
াইনোস	-7850
াইল্ড	-7851
াউন্ড	-7852
াকাতে	-7853
ানখাম	-7854
ায়াত	-7855
ায়াম	-7856
ায়িত	-7857
িটিতে	-7858
িবদ্ধ	-7859
িয়েন	-7860
িয়েল	-7861
ীক্ষা	-7862
েশনের	-7863
োটনের	-7864
োনায়	-7865
োরিডা	-7866
্টায়	-7867
্যালি	-7868
▁1450	-7869
▁1920	-7870
▁1922	-7871
▁1940	-7872
▁1957	-7873
▁1960	-7874
▁1969	-7875
▁1:15	-7876
▁2003	-7877
▁2005	-7878
▁2007	-7879
▁2012	-7880
▁2017	-7881
▁2020	-7882
▁2022	-7883
▁6.34	-7884
▁ACTA	-7885
▁accl	-7886
▁acta	-7887
▁aged	-7888
▁agen	-7889
▁atom	-7890
▁aval	-7891
▁bags	-7892
▁bare	-7893
▁bill	-7894
▁brew	-7895
▁card	-7896
▁cath	-7897
▁chem	-7898
▁clot	-7899
207	-7900
bane	-7901
burg	-7902
chev	-7903
আমের	-7904
স্কে	-7905
্যুৎ	-7906
্রাট	-7907
▁ঢাল	-7908
▁যুব	-7909
avier	-7910
forms	-7911
ufact	-7912
world	-7913
বেগের	-7914
▁cctv	-7915
▁coal	-7916
▁coll	-7917
▁cork	-7918
▁corn	-7919
▁cred	-7920
▁crew	-7921
▁crus	-7922
▁dark	-7923
▁data	-7924
▁dead	-7925
▁deep	-7926
▁defe	-7927
▁duel	-7928
▁emer	-7929
▁emir	-7930
▁emph	-7931
▁entr	-7932
▁ethe	-7933
▁ethn	-7934
▁fame	-7935
▁fare	-7936
▁fart	-7937
▁fine	-7938
▁fing	-7939
▁fish	-7940
▁fred	-7941
▁goal	-7942
▁guin	-7943
▁hall	-7944
▁hear	-7945
▁heir	-7946
▁hits	-7947
▁hole	-7948
▁hope	-7949
▁hosp	-7950
▁http	-7951
▁idea	-7952
▁intu	-7953
▁isol	-7954
▁jobs	-7955
▁jump	-7956
▁keys	-7957
▁kind	-7958
▁leak	-7959
▁love	-7960
▁mand	-7961
▁mild	-7962
▁mile	-7963
▁mira	-7964
▁miss	-7965
▁nerv	-7966
▁olaf	-7967
▁pack	-7968
▁pick	-7969
▁pitt	-7970
▁prag	-7971
▁prin	-7972
▁prom	-7973
▁pron	-7974
▁pull	-7975
▁rail	-7976
▁rate	-7977
▁rect	-7978
▁rent	-7979
▁rise	-7980
▁road	-7981
▁ross	-7982
▁sail	-7983
▁sand	-7984
▁sant	-7985
▁scam	-7986
▁scot	-7987
▁seal	-7988
▁self	-7989
▁sess	-7990
▁shar	-7991
▁shop	-7992
▁skip	-7993
▁soci	-7994
▁soft	-7995
▁sort	-7996
▁subt	-7997
▁suff	-7998
▁talk	-7999
ভোজ	-8000
্ধু	-8001
থলিক	-8002
ভারস	-8003
শাইড	-8004
শীলন	-8005
োবাল	-8006
▁উঠে	-8007
▁ঢেউ	-8008
earns	-8009
গঠনিক	-8010
দ্বাণ	-8011
পড়ার	-8012
পিটাল	-8013
লাপের	-8014
শিল্প	-8015
▁1950	-8016
▁1992	-8017
▁jeff	-8018
▁lenz	-8019
▁pave	-8020
▁tall	-8021
▁tech	-8022
▁tell	-8023
▁tend	-8024
▁tens	-8025
▁tide	-8026
▁toll	-8027
▁tres	-8028
▁turn	-8029
▁unit	-8030
▁upon	-8031
▁vari	-8032
▁virt	-8033
▁volc	-8034
▁walk	-8035
▁wars	-8036
▁wave	-8037
▁welf	-8038
▁wifi	-8039
▁wish	-8040
▁অগ্র	-8041
▁অঙ্গ	-8042
▁অত্য	-8043
▁অধিক	-8044
▁আদেশ	-8045
▁আনুম	-8046
▁আন্দ	-8047
▁আমির	-8048
▁আয়ো	-8049
▁আসছে	-8050
▁আসবে	-8051
▁আসলে	-8052
▁আস্ত	-8053
▁ইলেক	-8054
▁উড়ে	-8055
▁উত্স	-8056
▁উপচে	-8057
▁উপমহ	-8058
▁এদের	-8059
▁এপ্র	-8060
▁ওভার	-8061
▁কখনই	-8062
▁কখনো	-8063
▁কমিউ	-8064
▁কস্ট	-8065
▁কাঁচ	-8066
▁কাগজ	-8067
▁কালো	-8068
▁কেজি	-8069
▁কেনা	-8070
▁ক্রস	-8071
▁ক্রী	-8072
▁খেতে	-8073
▁খেলে	-8074
▁খ্যা	-8075
▁গন্ধ	-8076
▁গভীর	-8077
▁গর্ভ	-8078
▁গির্	-8079
▁গোলে	-8080
▁চক্র	-8081
▁চলছে	-8082
▁চলতে	-8083
▁চলবে	-8084
▁চাবি	-8085
▁চুরি	-8086
▁ছত্র	-8087
▁জঙ্গ	-8088
▁জনসং	-8089
▁জনাক	-8090
▁জলপথ	-8091
▁জারি	-8092
▁জিতে	-8093
▁জীবন	-8094
▁জুতো	-8095
▁ঝুলে	-8096
▁ট্যা	-8097
▁ট্র‍	-8098
▁ডুবো	-8099
কুট	-8100
▁৪০	-8101
bean	-8102
racy	-8103
rung	-8104
লাইফ	-8105
▁175	-8106
▁356	-8107
▁উঠল	-8108
copes	-8109
iquet	-8110
ribed	-8111
ওয়েজ	-8112
ত্মিক	-8113
▁(140	-8114
▁1830	-8115
▁কলেজ	-8116
▁জয়ী	-8117
▁তখনও	-8118
▁তদার	-8119
▁দম্প	-8120
▁দরজা	-8121
▁দুজন	-8122
▁দূতা	-8123
▁ধন্য	-8124
▁ধমনী	-8125
▁ধাতব	-8126
▁ধারা	-8127
▁নজরে	-8128
▁নাইট	-8129
▁নানা	-8130
▁নিলে	-8131
▁নেভা	-8132
▁নৌবহ	-8133
▁পঞ্জ	-8134
▁পরের	-8135
▁পাথর	-8136
▁পাবে	-8137
▁পারম	-8138
▁পালন	-8139
▁পিঠে	-8140
▁পুরো	-8141
▁প্রি	-8142
▁ফ্লু	-8143
▁বলার	-8144
▁বাঁক	-8145
▁বাঁচ	-8146
▁বাইক	-8147
▁বাজে	-8148
▁বারে	-8149
▁বারো	-8150
▁বাসা	-8151
▁বাসে	-8152
▁বিধি	-8153
▁বিনো	-8154
▁বিপদ	-8155
▁বিরা	-8156
▁বেগে	-8157
▁বেছে	-8158
▁ভাবা	-8159
▁ভালভ	-8160
▁মজার	-8161
▁মঞ্জ	-8162
▁মতোই	-8163
▁মন্ট	-8164
▁মরীচ	-8165
▁মহিল	-8166
▁মাদক	-8167
▁মিমি	-8168
▁মেইল	-8169
▁মেনে	-8170
▁মেয়	-8171
▁যত্ন	-8172
▁যানজ	-8173
▁রাখো	-8174
▁শুধু	-8175
▁শেষে	-8176
▁সবাই	-8177
▁সবুজ	-8178
▁সূঁচ	-8179
▁সেজং	-8180
▁সেটি	-8181
▁সেবা	-8182
▁সেরে	-8183
▁সৈকত	-8184
▁স্কট	-8185
▁হলেন	-8186
▁২০০৮	-8187
▁৯০০০	-8188
access	-8189
agious	-8190
angeul	-8191
ansion	-8192
apolis	-8193
archer	-8194
ardust	-8195
author	-8196
baijan	-8197
brella	-8198
celona	-8199
নসহ	-8200
▁ঠক	-8201
scan	-8202
▁dyn	-8203
▁সোফ	-8204
সম্পদ	-8205
াইফাই	-8206
▁radi	-8207
▁ছেলে	-8208
▁তুতে	-8209
▁দূরব	-8210
▁ব্লগ	-8211
▁হামল	-8212
▁১৬০০	-8213
chased	-8214
ctions	-8215
curity	-8216
ddenly	-8217
erving	-8218
forest	-8219
gering	-8220
ieties	-8221
ighter	-8222
iminal	-8223
inated	-8224
inking	-8225
iolent	-8226
isible	-8227
itants	-8228
jected	-8229
lected	-8230
length	-8231
nesses	-8232
orphic	-8233
panied	-8234
ranean	-8235
ressed	-8236
ricult	-8237
terday	-8238
urally	-8239
usting	-8240
vasses	-8241
ওয়াকে	-8242
ক্তিকর	-8243
গতভাবে	-8244
গ্রেশন	-8245
চ্ছন্দ	-8246
জ্জ্বল	-8247
তমালার	-8248
দামাটা	-8249
ন্দর্য	-8250
পনিবেশ	-8251
পূর্বা	-8252
প্রায়	-8253
বদন্তি	-8254
বান্ধব	-8255
বিদ্যা	-8256
ব্যাপী	-8257
মার্কে	-8258
মিশ্রণ	-8259
যাত্রী	-8260
শাইডোর	-8261
সাধারণ	-8262
সারণের	-8263
সিকতার	-8264
স্থায়	-8265
স্যবাদ	-8266
াইনালে	-8267
াকালীন	-8268
ান্টিক	-8269
ায়নিক	-8270
ার্থনা	-8271
ার্থপর	-8272
ার্লটে	-8273
াস্কার	-8274
াস্থলে	-8275
িত্বের	-8276
িয়াতে	-8277
িয়েছে	-8278
িয়েশন	-8279
িস্টের	-8280
িস্টোফ	-8281
িস্ট্র	-8282
োসিরাপ	-8283
্কেটবল	-8284
্টার্ক	-8285
্নেয়গ	-8286
্যাপ্ত	-8287
্রিয়া	-8288
্রোজেন	-8289
ৎপিণ্ড	-8290
▁(1469	-8291
▁2,220	-8292
▁2,400	-8293
▁5,000	-8294
▁added	-8295
▁algae	-8296
▁allen	-8297
▁alone	-8298
▁apple	-8299
▁Il	-8300
▁250	-8301
▁80%	-8302
▁REM	-8303
▁oha	-8304
onami	-8305
ximum	-8306
জ্জিত	-8307
্থক্য	-8308
▁1835	-8309
▁1839	-8310
▁1945	-8311
▁exha	-8312
▁eyes	-8313
▁iraq	-8314
▁vote	-8315
▁জনসন	-8316
▁জেলা	-8317
▁টোকা	-8318
▁নকশা	-8319
cisely	-8320
ointed	-8321
▁6,500	-8322
▁apply	-8323
▁arter	-8324
▁avian	-8325
▁aware	-8326
▁balls	-8327
▁banks	-8328
▁bases	-8329
▁basic	-8330
▁basis	-8331
▁begun	-8332
▁blake	-8333
▁block	-8334
▁board	-8335
▁boats	-8336
▁bobek	-8337
▁books	-8338
▁bound	-8339
▁broke	-8340
▁cable	-8341
▁canal	-8342
▁charm	-8343
▁chief	-8344
▁cliff	-8345
▁condu	-8346
▁covid	-8347
▁crown	-8348
▁cuban	-8349
▁dates	-8350
▁defic	-8351
▁deity	-8352
▁diagn	-8353
▁doing	-8354
▁drive	-8355
▁drone	-8356
▁dzong	-8357
▁encel	-8358
▁envir	-8359
▁ephes	-8360
▁evict	-8361
▁exact	-8362
▁fight	-8363
▁filed	-8364
▁films	-8365
▁flyer	-8366
▁forms	-8367
▁gives	-8368
▁graft	-8369
▁grant	-8370
▁grass	-8371
▁hands	-8372
▁hills	-8373
▁hindi	-8374
▁holes	-8375
▁hosts	-8376
▁human	-8377
▁indic	-8378
▁kings	-8379
▁komen	-8380
▁kyoto	-8381
▁lakes	-8382
▁libya	-8383
▁lives	-8384
▁manip	-8385
▁maroo	-8386
▁massa	-8387
▁moved	-8388
▁music	-8389
▁nadal	-8390
▁nerve	-8391
▁neuro	-8392
▁noted	-8393
▁older	-8394
▁onion	-8395
▁paint	-8396
▁parks	-8397
▁paths	-8398
▁peter	-8399
...	-8400
ahoo	-8401
walk	-8402
▁2-3	-8403
▁864	-8404
▁কণা	-8405
osmon	-8406
ratus	-8407
কুভার	-8408
াপলিস	-8409
▁(165	-8410
▁1492	-8411
▁1498	-8412
▁1610	-8413
▁albu	-8414
▁answ	-8415
▁laid	-8416
▁rebu	-8417
▁একমত	-8418
▁গুলি	-8419
▁পতিত	-8420
▁ভাইর	-8421
▁ভাঙচ	-8422
garian	-8423
hentic	-8424
▁(1418	-8425
▁11:29	-8426
▁asked	-8427
▁items	-8428
▁plant	-8429
▁point	-8430
▁polyn	-8431
▁probe	-8432
▁prose	-8433
▁pursu	-8434
▁racer	-8435
▁radar	-8436
▁radio	-8437
▁rains	-8438
▁recre	-8439
▁reign	-8440
▁rival	-8441
▁roads	-8442
▁rober	-8443
▁rocks	-8444
▁route	-8445
▁saito	-8446
▁satur	-8447
▁sched	-8448
▁seeds	-8449
▁seeks	-8450
▁share	-8451
▁shift	-8452
▁shoes	-8453
▁signs	-8454
▁sikhs	-8455
▁simpl	-8456
▁smart	-8457
▁smell	-8458
▁solve	-8459
▁spain	-8460
▁spell	-8461
▁spill	-8462
▁staff	-8463
▁stage	-8464
▁stanf	-8465
▁steal	-8466
▁steel	-8467
▁stone	-8468
▁stood	-8469
▁store	-8470
▁style	-8471
▁subst	-8472
▁table	-8473
▁takes	-8474
▁tanks	-8475
▁taxis	-8476
▁terms	-8477
▁texas	-8478
▁total	-8479
▁trade	-8480
▁trait	-8481
▁trees	-8482
▁trial	-8483
▁trips	-8484
▁tutor	-8485
▁urban	-8486
▁users	-8487
▁valid	-8488
▁vietn	-8489
▁works	-8490
▁wrong	-8491
▁zayat	-8492
▁অংশের	-8493
▁অক্ষত	-8494
▁অত্যা	-8495
▁অনেকে	-8496
▁অন্দর	-8497
▁অবতরণ	-8498
▁অববাহ	-8499
োহের	-8500
▁2.2	-8501
▁রফত	-8502
casts	-8503
loyed	-8504
চ্ছুক	-8505
পত্রে	-8506
পযোগী	-8507
মআরআই	-8508
রাশের	-8509
স্বতী	-8510
▁(2.3	-8511
▁kala	-8512
▁kids	-8513
▁এথেল	-8514
▁কসাই	-8515
▁তরুণ	-8516
▁দাবী	-8517
▁নলির	-8518
▁ভাঁজ	-8519
▁শাসন	-8520
niques	-8521
ীতিবিদ	-8522
▁liber	-8523
▁onega	-8524
▁panes	-8525
▁অ্যাক	-8526
▁অ্যার	-8527
▁আইনটি	-8528
▁আউন্স	-8529
▁আকাশে	-8530
▁আগ্রহ	-8531
▁আজকাল	-8532
▁আদর্শ	-8533
▁আধ্যা	-8534
▁আবশ্য	-8535
▁আবাসন	-8536
▁আবির্	-8537
▁আবেদন	-8538
▁আমাকে	-8539
▁আয়কর	-8540
▁আরোহণ	-8541
▁ইংরেজ	-8542
▁ইঞ্চি	-8543
▁ইনফ্ল	-8544
▁ইমেইল	-8545
▁উইন্ড	-8546
▁উপত্য	-8547
▁এতটাই	-8548
▁এরপরে	-8549
▁এসেছে	-8550
▁ওগুলো	-8551
▁ওনেগা	-8552
▁ওয়াশ	-8553
▁ওয়েল	-8554
▁কমিটি	-8555
▁করতেন	-8556
▁কল্যা	-8557
▁কাউকে	-8558
▁কাজের	-8559
▁কালাল	-8560
▁কিছুই	-8561
▁কৃষ্ণ	-8562
▁কেননা	-8563
▁কোর্ট	-8564
▁ক্ষমা	-8565
▁খেজুর	-8566
▁খেলার	-8567
▁গঠনের	-8568
▁গতকাল	-8569
▁গবেষক	-8570
▁গাছের	-8571
▁গুহার	-8572
▁গেছেন	-8573
▁গেলেও	-8574
▁গ্রহন	-8575
▁ঘটায়	-8576
▁ঘটেছে	-8577
▁ঘনত্ব	-8578
▁ঘাটতি	-8579
▁ঘোষিত	-8580
▁চাকার	-8581
▁চাথাম	-8582
▁চুরির	-8583
▁চূর্ণ	-8584
▁চোখের	-8585
▁চৌম্ব	-8586
▁জটিলত	-8587
▁জানলা	-8588
▁জানার	-8589
▁জাপান	-8590
▁জিজ্ঞ	-8591
▁জেতার	-8592
▁ঝড়টি	-8593
▁টানবে	-8594
▁টেক্স	-8595
▁ডিজনি	-8596
▁ডেভিড	-8597
▁ড্যান	-8598
▁ড্রোন	-8599
paper	-8600
▁জেমস	-8601
াদেশের	-8602
▁inexp	-8603
▁lunar	-8604
▁আকস্ম	-8605
▁ইথিওপ	-8606
▁ইসলাম	-8607
▁কোথাও	-8608
▁ডোমিন	-8609
▁তরঙ্গ	-8610
▁তীক্ষ	-8611
▁তুলতে	-8612
▁তেলের	-8613
▁তোলার	-8614
▁দাঙ্গ	-8615
▁দায়ী	-8616
▁দুরের	-8617
▁দেখলে	-8618
▁দেখান	-8619
▁দেখুন	-8620
▁দেখেন	-8621
▁নামার	-8622
▁নিচের	-8623
▁নিজেই	-8624
▁নীচের	-8625
▁নুড়ি	-8626
▁নেবেন	-8627
▁নেভির	-8628
▁পঞ্চম	-8629
▁পন্থা	-8630
▁পরস্প	-8631
▁পর্বে	-8632
▁পাখির	-8633
▁পাঠ্য	-8634
▁পাতলা	-8635
▁পাননি	-8636
▁পানির	-8637
▁পায়ে	-8638
▁পারতো	-8639
▁পাসের	-8640
▁পিটার	-8641
▁পুনরা	-8642
▁পুরুষ	-8643
▁পোশাক	-8644
▁পোস্ট	-8645
▁প্রচে	-8646
▁প্রাত	-8647
▁প্রাস	-8648
▁প্রেম	-8649
▁প্রোব	-8650
▁প্রোভ	-8651
▁ফিল্ম	-8652
▁ফেন্স	-8653
▁ফোকাল	-8654
▁ফোনের	-8655
▁ফ্যাল	-8656
▁ফ্রেড	-8657
▁বললেই	-8658
▁বসন্ত	-8659
▁বসবাস	-8660
▁বস্তু	-8661
▁বহনের	-8662
▁বাড়ি	-8663
▁বাড়ে	-8664
▁বাফেল	-8665
▁বাসটি	-8666
▁বিউটি	-8667
▁বিচ্ছ	-8668
▁বিজয়	-8669
▁বিপ্ল	-8670
▁বিরোধ	-8671
▁বিস্ম	-8672
▁বুকিং	-8673
▁বেগের	-8674
▁ব্রিট	-8675
▁ভিদাল	-8676
▁ভেতরে	-8677
▁ভেনিজ	-8678
▁মদ্যপ	-8679
▁মরশুম	-8680
▁মার্চ	-8681
▁মার্শ	-8682
▁মেমোর	-8683
▁মেরুর	-8684
▁ম্যাক	-8685
▁ম্যাচ	-8686
▁ম্যান	-8687
▁যাদের	-8688
▁রাখুন	-8689
▁রাডার	-8690
▁রুটের	-8691
▁রেডিও	-8692
▁রেসার	-8693
▁রেসোন	-8694
▁রোগীর	-8695
▁রোলার	-8696
▁লাতিন	-8697
▁লিবার	-8698
▁লুনার	-8699
136	-8700
UTC	-8701
SPCA	-8702
sieh	-8703
িঝড়	-8704
▁(90	-8705
▁গৃহ	-8706
arasv	-8707
bbles	-8708
chkin	-8709
today	-8710
uerto	-8711
শ্চেভ	-8712
িন্দি	-8713
▁1444	-8714
▁ebay	-8715
▁huge	-8716
▁কৌশল	-8717
▁জীবা	-8718
▁দৃঢ়	-8719
▁পণ্য	-8720
▁মশার	-8721
▁সাউথ	-8722
▁১৯২২	-8723
engeti	-8724
friend	-8725
▁(3136	-8726
▁1,300	-8727
▁april	-8728
▁david	-8729
▁evacu	-8730
▁fauna	-8731
▁hsieh	-8732
▁krush	-8733
▁noosa	-8734
▁parli	-8735
▁phnom	-8736
▁vidal	-8737
▁zhabd	-8738
▁আণবিক	-8739
▁লেখার	-8740
▁লোকাল	-8741
▁শরীরে	-8742
▁শহরতল	-8743
▁শহরের	-8744
▁শিকড়	-8745
▁শিকার	-8746
▁শিশুর	-8747
▁শুটিং	-8748
▁সংকেত	-8749
▁সংশোধ	-8750
▁সকেটে	-8751
▁সভাতে	-8752
▁সাইতো	-8753
▁সাগরে	-8754
▁সান্ত	-8755
▁সাশ্র	-8756
▁সাহিত	-8757
▁সিয়ে	-8758
▁সিরেন	-8759
▁সূচনা	-8760
▁সূত্র	-8761
▁সূর্য	-8762
▁সেফটি	-8763
▁স্টাড	-8764
▁স্টোর	-8765
▁স্পেস	-8766
▁স্যাপ	-8767
▁হরপ্প	-8768
▁হাজির	-8769
▁হাটার	-8770
▁হামলা	-8771
▁হার্ভ	-8772
▁হুমকি	-8773
▁হ্রাস	-8774
amental	-8775
arctica	-8776
areness	-8777
asingly	-8778
athered	-8779
attoirs	-8780
cedures	-8781
century	-8782
chestra	-8783
chydore	-8784
country	-8785
eastern	-8786
eration	-8787
hington	-8788
idering	-8789
igenous	-8790
ilosoph	-8791
isonous	-8792
istance	-8793
itation	-8794
ketball	-8795
markets	-8796
ominent	-8797
onychus	-8798
opoulos	-8799
ঘন্টা	-8800
▁12.8	-8801
raptor	-8802
িতিশীল	-8803
ুষ্ঠান	-8804
▁benef	-8805
▁louis	-8806
▁ounce	-8807
▁tonle	-8808
▁touch	-8809
▁ঘাঁটি	-8810
▁ঘোরার	-8811
▁ঢোকার	-8812
▁পনেরো	-8813
▁হেঁটে	-8814
astroph	-8815
omotion	-8816
passing	-8817
quality	-8818
querors	-8819
querque	-8820
radicts	-8821
reading	-8822
related	-8823
ributed	-8824
risoned	-8825
ronomer	-8826
theless	-8827
zerland	-8828
ক্তিদের	-8829
ক্রান্ত	-8830
ক্ষেত্র	-8831
গোষ্ঠীর	-8832
টিয়ারা	-8833
দৈর্ঘ্য	-8834
ন্ত্রের	-8835
পিংয়ের	-8836
প্রাণিত	-8837
বিশিষ্ট	-8838
বিশ্বের	-8839
বুকার্ক	-8840
মেয়াদী	-8841
য়ের্তো	-8842
যাত্রার	-8843
ষ্টিক্র	-8844
স্ক্যান	-8845
ানখামুন	-8846
ানিয়ান	-8847
াবলিকান	-8848
ার্টফোন	-8849
িয়োগের	-8850
িরিয়ান	-8851
ুয়ার্ট	-8852
েকেন্ডে	-8853
োনিয়ার	-8854
্যাক্টর	-8855
্যান্ডে	-8856
▁10,000	-8857
▁1995-9	-8858
▁24,000	-8859
▁55,000	-8860
▁accept	-8861
▁accord	-8862
▁acting	-8863
▁adjust	-8864
▁advice	-8865
▁affect	-8866
▁afghan	-8867
▁aftern	-8868
▁agreed	-8869
▁alaska	-8870
▁alonso	-8871
▁ambigu	-8872
▁annual	-8873
▁apollo	-8874
▁arctic	-8875
▁arthur	-8876
▁assume	-8877
▁basins	-8878
▁begins	-8879
▁behavi	-8880
▁belief	-8881
▁bosses	-8882
▁brains	-8883
▁breath	-8884
▁bright	-8885
▁broken	-8886
▁buying	-8887
▁church	-8888
▁circum	-8889
▁claims	-8890
▁closed	-8891
▁closer	-8892
▁colder	-8893
▁colony	-8894
▁coming	-8895
▁conven	-8896
▁copies	-8897
▁cracks	-8898
▁custom	-8899
▁2,207	-8900
▁উত্সব	-8901
োসিরাপট	-8902
▁dating	-8903
▁degree	-8904
▁demand	-8905
▁denied	-8906
▁depart	-8907
▁dinner	-8908
▁disadv	-8909
▁disapp	-8910
▁dissip	-8911
▁dozens	-8912
▁dreams	-8913
▁drinks	-8914
▁ending	-8915
▁entity	-8916
▁expand	-8917
▁explos	-8918
▁export	-8919
▁facing	-8920
▁fallen	-8921
▁feared	-8922
▁fields	-8923
▁fights	-8924
▁figure	-8925
▁flying	-8926
▁forget	-8927
▁formal	-8928
▁fossil	-8929
▁galile	-8930
▁garden	-8931
▁gather	-8932
▁giving	-8933
▁gotten	-8934
▁guilty	-8935
▁harapp	-8936
▁hawaii	-8937
▁hemisp	-8938
▁herost	-8939
▁hesper	-8940
▁highly	-8941
▁hostel	-8942
▁howard	-8943
▁injury	-8944
▁inland	-8945
▁invade	-8946
▁issues	-8947
▁korean	-8948
▁legend	-8949
▁listed	-8950
▁london	-8951
▁mainly	-8952
▁making	-8953
▁malays	-8954
▁marine	-8955
▁method	-8956
▁metrop	-8957
▁moment	-8958
▁needle	-8959
▁nevada	-8960
▁norway	-8961
▁notice	-8962
▁opened	-8963
▁oregon	-8964
▁papers	-8965
▁patent	-8966
▁photos	-8967
▁piquet	-8968
▁poland	-8969
▁prague	-8970
▁puerto	-8971
▁punjab	-8972
▁raised	-8973
▁ranger	-8974
▁really	-8975
▁recent	-8976
▁regist	-8977
▁reserv	-8978
▁reside	-8979
▁review	-8980
▁roller	-8981
▁romney	-8982
▁scarps	-8983
▁scores	-8984
▁sejong	-8985
▁seldom	-8986
▁series	-8987
▁served	-8988
▁sevent	-8989
▁severe	-8990
▁signed	-8991
▁single	-8992
▁sirena	-8993
▁skates	-8994
▁spring	-8995
▁squeez	-8996
▁stones	-8997
▁stored	-8998
▁storms	-8999
▁strike	-9000
▁struck	-9001
▁summit	-9002
▁sunday	-9003
▁survey	-9004
▁surviv	-9005
▁target	-9006
▁taínos	-9007
▁teleph	-9008
▁temper	-9009
▁thrown	-9010
▁trails	-9011
▁twelve	-9012
▁unesco	-9013
▁unions	-9014
▁values	-9015
▁valves	-9016
▁vandal	-9017
▁varied	-9018
▁varies	-9019
▁veloci	-9020
▁videos	-9021
▁visits	-9022
▁weaken	-9023
▁weaker	-9024
▁weight	-9025
▁winner	-9026
▁wonder	-9027
▁অতীতের	-9028
▁অধিকার	-9029
▁অধিবাস	-9030
▁অনেকটা	-9031
▁অনৈতিক	-9032
▁অপেক্ষ	-9033
▁অর্থাৎ	-9034
▁অসুস্থ	-9035
▁অস্ত্র	-9036
▁অ্যাপপ	-9037
▁আচরণের	-9038
▁আবাসিক	-9039
▁আয়োজক	-9040
▁আয়োজন	-9041
▁আলোকিত	-9042
▁আশঙ্কা	-9043
▁আশ্বাস	-9044
▁ইচ্ছুক	-9045
▁উচ্চতর	-9046
▁উচ্চার	-9047
▁উদযাপন	-9048
▁উদ্ধার	-9049
▁উন্নতি	-9050
▁উপজাতি	-9051
▁ঊর্ধ্ব	-9052
▁এইভাবে	-9053
▁একাধিক	-9054
▁এখনকার	-9055
▁এগুলোর	-9056
▁এড়াতে	-9057
▁এমআরআই	-9058
▁ওনিয়ন	-9059
▁কংগ্রে	-9060
▁কর্তৃক	-9061
▁কর্মরত	-9062
▁কাটানো	-9063
▁কার্যত	-9064
▁ক্যাফে	-9065
▁ক্লাসে	-9066
▁খাঁড়া	-9067
▁খুঁজতে	-9068
▁গভর্নর	-9069
▁গর্ততে	-9070
▁গর্তের	-9071
▁গাড়ীর	-9072
▁গোলার্	-9073
▁গোষ্ঠী	-9074
▁ঘটিয়ে	-9075
▁চলেছেন	-9076
▁জনগণের	-9077
▁জর্দান	-9078
▁জলবায়	-9079
▁জানানো	-9080
▁জায়েত	-9081
▁জীবনের	-9082
▁জোয়ার	-9083
▁টিভিতে	-9084
▁ট্রেনে	-9085
▁ডিগ্রি	-9086
▁ডিজনির	-9087
▁তালিকা	-9088
▁থাকলেও	-9089
▁দুর্গম	-9090
▁দেখবেন	-9091
▁দেয়নি	-9092
▁দেয়ার	-9093
▁ধর্মের	-9094
▁ধাক্কা	-9095
▁নর্দান	-9096
▁নামকরণ	-9097
▁নিবিড়	-9098
▁নিরাপদ	-9099
▁নেটওয়	-9100
▁নৌকায়	-9101
▁পজিটিভ	-9102
▁পণ্ডিত	-9103
▁পদার্থ	-9104
▁পরিমাপ	-9105
▁পলিনেশ	-9106
▁পাঠানো	-9107
▁পায়ের	-9108
▁পারবেন	-9109
▁পুরস্ক	-9110
▁পূর্বা	-9111
▁পৃষ্ঠট	-9112
▁প্রচার	-9113
▁প্রজাত	-9114
▁প্রবীণ	-9115
▁প্রশাস	-9116
▁প্রাইম	-9117
▁ফায়ার	-9118
▁ফ্লিটে	-9119
▁বইয়ের	-9120
▁বন্ধুর	-9121
▁বর্ণিত	-9122
▁বর্ননা	-9123
▁বসতিতে	-9124
▁বাজারে	-9125
▁বাতাসে	-9126
▁বিক্রি	-9127
▁বিচারক	-9128
▁বিতর্ক	-9129
▁বিদায়	-9130
▁বিদেশে	-9131
▁বিভাজন	-9132
▁বিলম্ব	-9133
▁বুধবার	-9134
▁বেইজিং	-9135
▁বেলায়	-9136
▁ব্যাহত	-9137
▁ভাইকিং	-9138
▁ভাড়ার	-9139
▁ভিয়েত	-9140
▁ভুলবেন	-9141
▁ভূমিকা	-9142
▁ভেঙ্গে	-9143
▁মইয়ের	-9144
▁মনোনীত	-9145
▁মনোভাব	-9146
▁মরশুমে	-9147
▁মাওরির	-9148
▁মাটিতে	-9149
▁মাথায়	-9150
▁মামলার	-9151
▁মার্চে	-9152
▁মুদ্রণ	-9153
▁মৌসুমে	-9154
▁ম্যাসা	-9155
▁যাচ্ছে	-9156
▁যায়গা	-9157
▁যুক্তি	-9158
▁রবার্ট	-9159
▁রবিবার	-9160
▁রাজত্ব	-9161
▁রান্না	-9162
▁রেইনবো	-9163
▁রেখেছে	-9164
▁লন্ডনে	-9165
▁লেনদেন	-9166
▁শক্তির	-9167
▁শনাক্ত	-9168
▁শহরটির	-9169
▁শান্তি	-9170
▁সংঘটিত	-9171
▁সকালের	-9172
▁সজ্জিত	-9173
▁সবকিছু	-9174
▁সমকামী	-9175
▁সমাধির	-9176
▁সম্রাট	-9177
▁সরকারী	-9178
▁সর্বদা	-9179
▁সস্তার	-9180
▁সাঁতার	-9181
▁সাগরের	-9182
▁সাতবার	-9183
▁সান্টা	-9184
▁সাবলীল	-9185
▁সিন্ধু	-9186
▁স্কিইং	-9187
▁স্কোয়	-9188
▁স্তরের	-9189
▁স্পর্শ	-9190
▁স্বয়ং	-9191
▁স্বর্ণ	-9192
▁হিন্দি	-9193
▁হিমবাহ	-9194
▁হুমকির	-9195
▁হ্রদের	-9196
arasvati	-9197
boarding	-9198
entioned	-9199
gressive	-9200
icipated	-9201
isturbed	-9202
osmonaut	-9203
othermal	-9204
নখামেনের	-9205
ন্দনগুলো	-9206
বাইজানের	-9207
ম্পানিটি	-9208
রায়েলের	-9209
ষ্ক্রিয়	-9210
স্থাপনের	-9211
াইনোসরের	-9212
াপাগোসের	-9213
িকাণ্ডের	-9214
ুয়েঞ্জা	-9215
োস্কোপের	-9216
্টিমিটার	-9217
্যালয়ের	-9218
্রোজেনের	-9219
▁100-200	-9220
▁aborted	-9221
▁accused	-9222
▁airways	-9223
▁alcohol	-9224
▁alleged	-9225
▁america	-9226
▁angeles	-9227
▁antique	-9228
▁armenia	-9229
▁arrival	-9230
▁article	-9231
▁artific	-9232
▁artists	-9233
▁aspects	-9234
▁attacks	-9235
▁beaches	-9236
▁bearing	-9237
▁bedding	-9238
▁belgian	-9239
▁biggest	-9240
▁bolonia	-9241
▁booking	-9242
▁britain	-9243
▁cameras	-9244
▁careful	-9245
▁caribes	-9246
▁caspian	-9247
▁changes	-9248
▁charged	-9249
▁chatham	-9250
▁chinese	-9251
▁classes	-9252
▁closely	-9253
▁closing	-9254
▁coaches	-9255
▁colbert	-9256
▁compare	-9257
▁consist	-9258
▁crashed	-9259
▁crucial	-9260
▁cyclone	-9261
▁desired	-9262
▁details	-9263
▁easiest	-9264
▁editing	-9265
▁effects	-9266
▁enacted	-9267
▁encoura	-9268
▁england	-9269
▁environ	-9270
▁estonia	-9271
▁exports	-9272
▁extract	-9273
▁extreme	-9274
▁failure	-9275
▁farther	-9276
▁fastest	-9277
▁filling	-9278
▁founded	-9279
▁freedom	-9280
▁funding	-9281
▁further	-9282
▁germans	-9283
▁gravity	-9284
▁greater	-9285
▁grounds	-9286
▁hangeul	-9287
▁happens	-9288
▁harvard	-9289
▁heading	-9290
▁healthy	-9291
▁hearing	-9292
▁himself	-9293
▁hitting	-9294
▁holders	-9295
▁holding	-9296
▁hostels	-9297
▁implied	-9298
▁insurer	-9299
▁invaded	-9300
▁iranian	-9301
▁johnson	-9302
▁joining	-9303
▁journal	-9304
▁justice	-9305
▁kingdom	-9306
▁landing	-9307
▁lawyers	-9308
▁leaders	-9309
▁leading	-9310
▁leaving	-9311
▁lodging	-9312
▁managed	-9313
▁markets	-9314
▁martian	-9315
▁maximum	-9316
▁mediter	-9317
▁mindset	-9318
▁minimum	-9319
▁morning	-9320
▁musashi	-9321
▁ngawang	-9322
▁nucleus	-9323
▁numbers	-9324
▁observe	-9325
▁obvious	-9326
▁offered	-9327
▁offices	-9328
▁opening	-9329
▁options	-9330
▁origami	-9331
▁outdoor	-9332
▁overall	-9333
▁peoples	-9334
▁persons	-9335
▁pittman	-9336
▁planets	-9337
▁players	-9338
▁playing	-9339
▁primary	-9340
▁produce	-9341
▁product	-9342
▁program	-9343
▁project	-9344
▁protons	-9345
▁quality	-9346
▁quarter	-9347
▁rainbow	-9348
▁ranging	-9349
▁reached	-9350
▁reading	-9351
▁reasons	-9352
▁receive	-9353
▁refused	-9354
▁release	-9355
▁reserve	-9356
▁respons	-9357
▁results	-9358
▁richest	-9359
▁seasons	-9360
▁section	-9361
▁selfish	-9362
▁sikhism	-9363
▁society	-9364
▁someone	-9365
▁sources	-9366
▁squares	-9367
▁stearns	-9368
▁steeper	-9369
▁stewart	-9370
▁suicide	-9371
▁supreme	-9372
▁targets	-9373
▁tenants	-9374
▁tension	-9375
▁trenton	-9376
▁unknown	-9377
▁victims	-9378
▁violent	-9379
▁visible	-9380
▁waiting	-9381
▁weapons	-9382
▁welfare	-9383
▁winning	-9384
▁writing	-9385
▁written	-9386
▁অংশগুলি	-9387
▁অংশগুলো	-9388
▁অঞ্চলকে	-9389
▁অতিথিরা	-9390
▁অত্যন্ত	-9391
▁অধীনস্থ	-9392
▁অনলাইনে	-9393
▁অনুশীলন	-9394
▁অনুসন্ধ	-9395
▁অন্ত্যে	-9396
▁অন্ধত্ব	-9397
▁অবস্থার	-9398
▁অভিবাসন	-9399
▁অরিগামি	-9400
▁আগস্টের	-9401
▁আটকানোর	-9402
▁আন্দোলন	-9403
▁আফ্রিকা	-9404
▁আমন্ত্র	-9405
▁আয়করের	-9406
▁আরিয়াস	-9407
▁আশেপাশে	-9408
▁ইউনেস্ক	-9409
▁ইউরোপের	-9410
▁ইতালীয়	-9411
▁ইতিবাচক	-9412
▁ইতিহাসে	-9413
▁ইত্যাদি	-9414
▁ঈশ্বরের	-9415
▁উজ্জ্বল	-9416
▁উত্তপ্ত	-9417
▁উপকূলের	-9418
▁উপেক্ষা	-9419
▁এইধরনের	-9420
▁এভিয়ান	-9421
▁করছিলেন	-9422
▁কস্টেলো	-9423
▁কানাডার	-9424
▁কৃত্রিম	-9425
▁কেপটাউন	-9426
▁ক্রমাগত	-9427
▁ক্লাবের	-9428
▁ক্ষমতার	-9429
▁ক্ষেত্র	-9430
▁গাড়িটি	-9431
▁গ্রান্ট	-9432
▁গ্লোবাল	-9433
▁চলাফেরা	-9434
▁চালকদের	-9435
▁চিকিৎসক	-9436
▁জিনিসের	-9437
▁জুনিয়র	-9438
▁টেলিফোন	-9439
▁ট্রেনের	-9440
▁ডানদিকে	-9441
▁তীক্ষ্ণ	-9442
▁দক্ষতার	-9443
▁দক্ষিণে	-9444
▁দৃশ্যের	-9445
▁দেশগুলি	-9446
▁দ্রুততম	-9447
▁ধন্যবাদ	-9448
▁ধাপগুলি	-9449
▁ধারণাটি	-9450
▁নক্ষত্র	-9451
▁নির্গমন	-9452
▁নিশ্চিৎ	-9453
▁নিষিদ্ধ	-9454
▁নেওয়ার	-9455
▁পছন্দের	-9456
▁পদক্ষেপ	-9457
▁পদত্যাগ	-9458
▁পরিবেশন	-9459
▁পরিশ্রম	-9460
▁পর্যালো	-9461
▁পশ্চিমে	-9462
▁পার্কের	-9463
▁পিচ্ছিল	-9464
▁পিছিয়ে	-9465
▁পেয়েছে	-9466
▁পেরিয়ে	-9467
▁পৌঁছায়	-9468
▁প্যাডের	-9469
▁প্রজাতি	-9470
▁প্রত্নত	-9471
▁প্রদত্ত	-9472
▁প্রশস্ত	-9473
▁প্রিক্স	-9474
▁বাড়াতে	-9475
▁বানিয়ে	-9476
▁বারান্দ	-9477
▁বার্লিন	-9478
▁বাল্বটি	-9479
▁বাস্তবে	-9480
▁বিচারের	-9481
▁বিচিত্র	-9482
▁বিদ্যুৎ	-9483
▁বিমানটি	-9484
▁বিশিষ্ট	-9485
▁বিষাক্ত	-9486
▁বিস্তৃত	-9487
▁বোধগম্য	-9488
▁ভ্রমনের	-9489
▁মঞ্জুরি	-9490
▁মন্তব্য	-9491
▁মহাকাশে	-9492
▁মহাসাগর	-9493
▁মাঝখানে	-9494
▁মানুষরা	-9495
▁মামলাটি	-9496
▁মার্চের	-9497
▁মালভূমি	-9498
▁মিডিয়া	-9499
▁মিনিটের	-9500
▁মৃত্যুর	-9501
▁মৌসুমের	-9502
▁যাত্রার	-9503
▁যৌক্তিক	-9504
▁রপ্তানি	-9505
▁রফতানির	-9506
▁রাজকীয়	-9507
▁রাজ্যের	-9508
▁রিজার্ভ	-9509
▁রেখেছিল	-9510
▁শতাংশের	-9511
▁শার্লটে	-9512
▁শিকারের	-9513
▁শিল্পের	-9514
▁শুক্রের	-9515
▁শৈল্পিক	-9516
▁শ্রেষ্ঠ	-9517
▁সক্রিয়	-9518
▁সতর্কতা	-9519
▁সমস্যার	-9520
▁সম্পত্ত	-9521
▁সম্মেলন	-9522
▁সরঞ্জাম	-9523
▁সরাবরাহ	-9524
▁সামগ্রী	-9525
▁সার্ভিস	-9526
▁স্ট্রিট	-9527
▁স্তন্যপ	-9528
▁স্নায়ু	-9529
▁স্প্যান	-9530
▁স্বীকার	-9531
▁হাঙ্গের	-9532
▁হারিকেন	-9533
▁হোস্টেল	-9534
▁হ্যাঙ্গ	-9535
continent	-9536
isticated	-9537
ণব্যবস্থা	-9538
্যানফোর্ড	-9539
▁absolute	-9540
▁accessed	-9541
▁achieved	-9542
▁agencies	-9543
▁agricult	-9544
▁anywhere	-9545
▁apparent	-9546
▁armenian	-9547
▁arrested	-9548
▁artistic	-9549
▁assyrian	-9550
▁attempts	-9551
▁behavior	-9552
▁brackets	-9553
▁breaking	-9554
▁canceled	-9555
▁catholic	-9556
▁chariots	-9557
▁climbing	-9558
▁clothing	-9559
▁comments	-9560
▁compared	-9561
▁computer	-9562
▁congress	-9563
▁connects	-9564
▁constant	-9565
▁continue	-9566
▁criminal	-9567
▁critical	-9568
▁cyclical	-9569
▁damadian	-9570
▁danielle	-9571
▁dinosaur	-9572
▁diseases	-9573
▁disorder	-9574
▁distance	-9575
▁distingu	-9576
▁drukgyal	-9577
▁egyptian	-9578
▁eighteen	-9579
▁emirates	-9580
▁emission	-9581
▁emitting	-9582
▁ethelred	-9583
▁everyday	-9584
▁everyone	-9585
▁expenses	-9586
▁facility	-9587
▁failures	-9588
▁fallujah	-9589
▁favorite	-9590
▁festival	-9591
▁formally	-9592
▁friendly	-9593
▁function	-9594
▁generate	-9595
▁geologic	-9596
▁glaciers	-9597
▁guinness	-9598
▁historic	-9599
▁hospital	-9600
▁hydrogen	-9601
▁impulses	-9602
▁includes	-9603
▁infected	-9604
▁informal	-9605
▁instance	-9606
▁intended	-9607
▁interior	-9608
▁invasion	-9609
▁involves	-9610
▁jourdain	-9611
▁mainland	-9612
▁manufact	-9613
▁material	-9614
▁medicine	-9615
▁memorial	-9616
▁networks	-9617
▁neutrons	-9618
▁nitrogen	-9619
▁normally	-9620
▁november	-9621
▁nowadays	-9622
▁obscured	-9623
▁observed	-9624
▁occupies	-9625
▁ovechkin	-9626
▁overscan	-9627
▁partizan	-9628
▁passport	-9629
▁patterns	-9630
▁perceive	-9631
▁pictures	-9632
▁powerful	-9633
▁precious	-9634
▁produced	-9635
▁programm	-9636
▁proposed	-9637
▁prosecut	-9638
▁provides	-9639
▁recently	-9640
▁register	-9641
▁released	-9642
▁remember	-9643
▁requests	-9644
▁research	-9645
▁reserved	-9646
▁scholars	-9647
▁sciences	-9648
▁security	-9649
▁sentence	-9650
▁showcase	-9651
▁smallest	-9652
▁soldiers	-9653
▁spinning	-9654
▁stanford	-9655
▁stardust	-9656
▁starting	-9657
▁stations	-9658
▁straight	-9659
▁suddenly	-9660
▁supplies	-9661
▁swimming	-9662
▁traveler	-9663
▁treeless	-9664
▁umbrella	-9665
▁universe	-9666
▁unwanted	-9667
▁villages	-9668
▁virginia	-9669
▁visiting	-9670
▁watching	-9671
▁অতিবাহিত	-9672
▁অধিকারের	-9673
▁অধ্যুষিত	-9674
▁অন্যথায়	-9675
▁অ্যাথলিট	-9676
▁অ্যাপোলো	-9677
▁আগেভাগেই	-9678
▁আগ্নেয়গ	-9679
▁আত্মঘাতী	-9680
▁আনুষ্ঠান	-9681
▁আলাস্কার	-9682
▁ইতিহাসের	-9683
▁ইত্যাদির	-9684
▁উদ্দীপ্ত	-9685
▁উদ্ভাবিত	-9686
▁এসেছিলেন	-9687
▁ওয়াইফাই	-9688
▁কর্মক্ষম	-9689
▁কাগজপত্র	-9690
▁কাঠামোগত	-9691
▁কার্যকরী	-9692
▁কিছুক্ষণ	-9693
▁কোপেনহেগ	-9694
▁কোরিয়ান	-9695
▁কোলবার্ট	-9696
▁কৌশলগুলো	-9697
▁ক্যাথলিক	-9698
▁ক্যানিওন	-9699
▁ক্যামেরা	-9700
▁খুঁটিয়ে	-9701
▁গবেষণায়	-9702
▁গ্রেফতার	-9703
▁ঘটনাসমূহ	-9704
▁চক্রাকার	-9705
▁চরিত্রের	-9706
▁চারপাশের	-9707
▁চেয়েছিল	-9708
▁জনসংখ্যা	-9709
▁জনাকীর্ণ	-9710
▁তত্ত্বটি	-9711
▁তুষারপাত	-9712
▁দীর্ঘকাল	-9713
▁দৈনন্দিন	-9714
▁নথিভুক্ত	-9715
▁নিয়েছিল	-9716
▁নিরীক্ষা	-9717
▁নৌবাহিনী	-9718
▁পদ্ধতিতে	-9719
▁পরিচালনা	-9720
▁পরিযায়ী	-9721
▁পর্যটকরা	-9722
▁পার্থক্য	-9723
▁পিটম্যান	-9724
▁পৃষ্ঠায়	-9725
▁প্যারোডি	-9726
▁প্রকাশিত	-9727
▁প্রজাতির	-9728
▁প্রতিকূল	-9729
▁প্রতিনিধ	-9730
▁প্রতিরোধ	-9731
▁প্রবর্তক	-9732
▁প্রবাহিত	-9733
▁প্রবেশের	-9734
▁প্রশান্ত	-9735
▁প্রস্তুত	-9736
▁ফর্ম্যাট	-9737
▁ফ্লোরিডা	-9738
▁বর্ণবাদী	-9739
▁বর্ণমালা	-9740
▁বায়বীয়	-9741
▁বাস্তবতা	-9742
▁বিজ্ঞপ্ত	-9743
▁বিজ্ঞাপন	-9744
▁বিভাগীয়	-9745
▁বিস্ফোরণ	-9746
▁ব্যক্তির	-9747
▁ব্যাকটের	-9748
▁ব্যাখ্যা	-9749
▁ভবিষ্যতে	-9750
▁ভাষাভাষী	-9751
▁ভূখণ্ডের	-9752
▁মনোনিবেশ	-9753
▁মন্দিরটি	-9754
▁মহাসাগরে	-9755
▁মহিলাদের	-9756
▁মানচিত্র	-9757
▁মানুষদের	-9758
▁মারাত্মক	-9759
▁যাতায়াত	-9760
▁যোগদানের	-9761
▁রহস্যবাদ	-9762
▁রাজনৈতিক	-9763
▁রাস্তায়	-9764
▁সংমিশ্রণ	-9765
▁সংরক্ষিত	-9766
▁সংস্থাটি	-9767
▁সত্যিকার	-9768
▁সমাধিসৌধ	-9769
▁সম্প্রতি	-9770
▁সম্মিলিত	-9771
▁সাংগঠনিক	-9772
▁সাদামাটা	-9773
▁সাব্যস্ত	-9774
▁সুপরিচিত	-9775
▁সুরক্ষিত	-9776
▁সেকেন্ডে	-9777
▁সেরেঙ্গে	-9778
▁সৌন্দর্য	-9779
▁স্টেশনটি	-9780
▁স্পষ্টতই	-9781
▁হৃৎপিণ্ড	-9782
▁হ্যাঙ্গি	-9783
forcements	-9784
পূর্বাব্দে	-9785
্টার্কটিকা	-9786
▁abattoirs	-9787
▁agreement	-9788
▁assessing	-9789
▁associate	-9790
▁authentic	-9791
▁authority	-9792
▁automatic	-9793
▁awareness	-9794
▁barcelona	-9795
▁basically	-9796
▁blindness	-9797
▁canyoning	-9798
▁carefully	-9799
▁caribbean	-9800
▁carriages	-9801
▁celebrate	-9802
▁concerned	-9803
▁conscious	-9804
▁copyright	-9805
▁crevasses	-9806
▁crossings	-9807
▁decorated	-9808
▁depending	-9809
▁described	-9810
▁determine	-9811
▁differing	-9812
▁directing	-9813
▁discovery	-9814
▁distances	-9815
▁dominican	-9816
▁electrons	-9817
▁emergency	-9818
▁enceladus	-9819
▁endurance	-9820
▁essential	-9821
▁establish	-9822
▁estimates	-9823
▁evacuated	-9824
▁existence	-9825
▁expansion	-9826
▁expressed	-9827
▁festivals	-9828
▁finishing	-9829
▁gathering	-9830
▁hungarian	-9831
▁increased	-9832
▁influence	-9833
▁influenza	-9834
▁inhabited	-9835
▁invention	-9836
▁invisible	-9837
▁krushchev	-9838
▁landscape	-9839
▁locations	-9840
▁mentioned	-9841
▁molecular	-9842
▁mysticism	-9843
▁naturally	-9844
▁necessary	-9845
▁necessity	-9846
▁newspaper	-9847
▁nightlife	-9848
▁numbering	-9849
▁observing	-9850
▁orchestra	-9851
▁organisms	-9852
▁overnight	-9853
▁philosoph	-9854
▁poisonous	-9855
▁political	-9856
▁polynesia	-9857
▁precisely	-9858
▁presented	-9859
▁preserved	-9860
▁primarily	-9861
▁providers	-9862
▁published	-9863
▁purchased	-9864
▁radiation	-9865
▁recording	-9866
▁relatives	-9867
▁religions	-9868
▁replacing	-9869
▁represent	-9870
▁resulting	-9871
▁returning	-9872
▁scheduled	-9873
▁sentences	-9874
▁separated	-9875
▁serengeti	-9876
▁singapore	-9877
▁situation	-9878
▁somewhere	-9879
▁spiritual	-9880
▁standards	-9881
▁strengthe	-9882
▁structure	-9883
▁successes	-9884
▁suggested	-9885
▁supported	-9886
▁sustained	-9887
▁tradition	-9888
▁translate	-9889
▁virtually	-9890
▁yesterday	-9891
▁zhabdrung	-9892
▁অপরাধমূলক	-9893
▁অর্থনীতির	-9894
▁অশ্বারোহী	-9895
▁আংশিকভাবে	-9896
▁আটলান্টিক	-9897
▁ইতালিয়ান	-9898
▁ইমিগ্রেশন	-9899
▁উপস্থাপিত	-9900
▁এয়ারলাইন	-9901
▁ওয়াশিংটন	-9902
▁কারাগারটি	-9903
▁কার্যক্রম	-9904
▁কিংবদন্তি	-9905
▁ক্যান্সার	-9906
▁ক্যাম্পিং	-9907
▁ক্রুশ্চেভ	-9908
▁ক্ষুদ্রতম	-9909
▁ক্ষেত্রেও	-9910
▁গর্ভপাতের	-9911
▁গার্ডেনের	-9912
▁গুরুত্বের	-9913
▁গ্রেপ্তার	-9914
▁ঘটনাস্থলে	-9915
▁ঘূর্ণিঝড়	-9916
▁চতুর্থাংশ	-9917
▁চলচ্চিত্র	-9918
▁চৌম্বকীয়	-9919
▁জনগোষ্ঠীর	-9920
▁জন্মগ্রহণ	-9921
▁জানুয়ারি	-9922
▁জাহাজগুলো	-9923
▁জেরুজালেম	-9924
▁টেলিভিশনে	-9925
▁ট্যাঙ্কের	-9926
▁ট্যুরগুলি	-9927
▁ডুবোজাহাজ	-9928
▁তৃতীয়াংশ	-9929
▁দুর্নীতির	-9930
▁দেখেছিলেন	-9931
▁ধারাবাহিক	-9932
▁নির্ণয়ের	-9933
▁পরিকল্পিত	-9934
▁পুয়ের্তো	-9935
▁পেরেন্টহু	-9936
▁প্যাটার্ন	-9937
▁প্রতিফলিত	-9938
▁প্রতিবেশী	-9939
▁প্রত্যক্ষ	-9940
▁ফ্রান্সের	-9941
▁ফ্র্যাঙ্ক	-9942
▁বন্যপ্রাণ	-9943
▁বর্ণমালার	-9944
▁বাস্কেটবল	-9945
▁বিজ্ঞানের	-9946
▁বিদেশীদের	-9947
▁বিদ্রোহের	-9948
▁বিরক্তিকর	-9949
▁বিশেষভাবে	-9950
▁বিষয়টিকে	-9951
▁বিস্ফোরিত	-9952
▁বৃষ্টিপাত	-9953
▁বেলজিয়ান	-9954
▁ব্যক্তিকে	-9955
▁ব্যাগগুলি	-9956
▁ব্রাজিলের	-9957
▁ভিয়েতনাম	-9958
▁ভ্রমণকারী	-9959
▁মানসিকতার	-9960
▁যাত্রীদের	-9961
▁রাষ্ট্রের	-9962
▁রাসায়নিক	-9963
▁শহরগুলিতে	-9964
▁সংক্রামিত	-9965
▁সংবিধানের	-9966
▁সংরক্ষণের	-9967
▁সংস্পর্শে	-9968
▁সমন্বয়ের	-9969
▁সম্পর্কের	-9970
▁সিস্টেমের	-9971
▁সেন্ট্রাল	-9972
▁স্কেটগুলি	-9973
▁স্থিতিশীল	-9974
▁স্বার্থপর	-9975
▁স্বাস্থ্য	-9976
▁হাওয়ার্ড	-9977
▁হ্যারিকেন	-9978
▁activities	-9979
▁aggressive	-9980
▁antarctica	-9981
▁astronomer	-9982
▁atmosphere	-9983
▁australian	-9984
▁avalanches	-9985
▁azerbaijan	-9986
▁basketball	-9987
▁catastroph	-9988
▁complexity	-9989
▁conquerors	-9990
▁contagious	-9991
▁department	-9992
▁difference	-9993
▁disability	-9994
▁ecuadorian	-9995
▁exhausting	-9996
▁foreigners	-9997
▁generation	-9998
▁geothermal	-9999
▁hemisphere	-10000
▁identified	-10001
▁imprisoned	-10002
▁indicating	-10003
▁indigenous	-10004
▁individual	-10005
▁infectious	-10006
▁locomotion	-10007
▁microscope	-10008
▁parliament	-10009
▁physically	-10010
▁pilgrimage	-10011
▁practicing	-10012
▁previously	-10013
▁procedures	-10014
▁production	-10015
▁properties	-10016
▁rainforest	-10017
▁reasonably	-10018
▁reflecting	-10019
▁reportedly	-10020
▁republican	-10021
▁researcher	-10022
▁resolution	-10023
▁restaurant	-10024
▁revolution	-10025
▁smartphone	-10026
▁spacecraft	-10027
▁specialise	-10028
▁specialist	-10029
▁stimulated	-10030
▁structured	-10031
▁supporting	-10032
▁techniques	-10033
▁telescopes	-10034
▁throughout	-10035
▁travellers	-10036
▁triggering	-10037
▁washington	-10038
▁অনুপ্রাণিত	-10039
▁অনুষ্ঠানটি	-10040
▁অপেক্ষাকৃত	-10041
▁অববাহিকায়	-10042
▁অভ্যন্তরীণ	-10043
▁অ্যাঞ্জেলে	-10044
▁অ্যানিমেশন	-10045
▁আধ্যাত্মিক	-10046
▁আবির্ভাবের	-10047
▁ইকুয়েডরের	-10048
▁ইভেন্টগুলি	-10049
▁ইসরায়েলের	-10050
▁উন্নয়নশীল	-10051
▁উপমহাদেশের	-10052
▁এয়ারওয়েজ	-10053
▁ওয়েবসাইটে	-10054
▁কোম্পানিটি	-10055
▁ক্যারিবীয়	-10056
▁ক্লান্তিকর	-10057
▁চুক্তিবদ্ধ	-10058
▁জলপ্রপাতের	-10059
▁জার্মানদের	-10060
▁ড্যানিয়েল	-10061
▁তুতানখামুন	-10062
▁নিষেধাজ্ঞা	-10063
▁পরিকল্পনার	-10064
▁পরিবর্তনের	-10065
▁পর্বতমালার	-10066
▁পূর্ববর্তী	-10067
▁পোল্যান্ডে	-10068
▁প্রতিবেশীর	-10069
▁প্রত্যাশিত	-10070
▁প্রস্তাবিত	-10071
▁ফটোগ্রাফির	-10072
▁বসন্তকালীন	-10073
▁বাসিন্দারা	-10074
▁বিচারকার্য	-10075
▁বিপর্যয়ের	-10076
▁বিমানবন্দর	-10077
▁বিস্ফোরণের	-10078
▁ব্যক্তিদের	-10079
▁ব্যবসায়িক	-10080
▁ব্যাপকভাবে	-10081
▁ভূমিকম্পের	-10082
▁ভেলোসিরাপট	-10083
▁মহাকাশচারী	-10084
▁রিপাবলিকান	-10085
▁লক্ষ্যবস্ত	-10086
▁সংস্থাগুলো	-10087
▁সত্যিকারের	-10088
▁সাম্প্রতিক	-10089
▁স্টুয়ার্ট	-10090
▁স্বাচ্ছন্দ	-10091
▁স্মার্টফোন	-10092
▁হাইড্রোজেন	-10093
constitution	-10094
▁accompanied	-10095
▁albuquerque	-10096
▁anticipated	-10097
▁appearances	-10098
▁association	-10099
▁backcountry	-10100
▁combination	-10101
▁comfortable	-10102
▁constructed	-10103
▁contradicts	-10104
▁distinctive	-10105
▁educational	-10106
▁fundamental	-10107
▁herostratus	-10108
▁imagination	-10109
▁inexpensive	-10110
▁inhabitants	-10111
▁inspections	-10112
▁instruction	-10113
▁perspective	-10114
▁stereotypes	-10115
▁switzerland	-10116
▁translation	-10117
▁undisturbed	-10118
▁অন্তর্নিহিত	-10119
▁আইসল্যান্ডে	-10120
▁আকস্মিকভাবে	-10121
▁আক্রমণাত্মক	-10122
▁আলেকজান্ডার	-10123
▁ইঞ্জিনিয়ার	-10124
▁এয়ারলাইন্স	-10125
▁ওভারস্ক্যান	-10126
▁কর্তৃপক্ষের	-10127
▁কর্মকর্তারা	-10128
▁কার্যকলাপের	-10129
▁ক্ষতিগ্রস্থ	-10130
▁খ্রিস্টাব্দ	-10131
▁গালাপাগোসের	-10132
▁ঘটিয়েছিলেন	-10133
▁চলচ্চিত্রের	-10134
▁চিন্তাভাবনা	-10135
▁জাতীয়করণের	-10136
▁জানুয়ারিতে	-10137
▁দ্বীপপুঞ্জে	-10138
▁নাটকীয়ভাবে	-10139
▁নিউক্লিয়াস	-10140
▁নিয়ন্ত্রণে	-10141
▁নিয়মিতভাবে	-10142
▁নেটওয়ার্কে	-10143
▁পরিবারগুলির	-10144
▁পর্যায়গুলি	-10145
▁পুনরাবৃত্তি	-10146
▁প্রকৃতপক্ষে	-10147
▁প্রজাতন্ত্র	-10148
▁প্রতিষ্ঠানে	-10149
▁বাচ্চাদেরকে	-10150
▁বাসিন্দাদের	-10151
▁বিশ্বব্যাপী	-10152
▁বিষয়গুলিতে	-10153
▁ভবিষ্যদ্বাণ	-10154
▁ভূতাত্ত্বিক	-10155
▁ভ্রমণকারীরা	-10156
▁মহাকাশযানের	-10157
▁রাষ্ট্রপতির	-10158
▁সাম্রাজ্যের	-10159
▁সেন্টিমিটার	-10160
▁সৈন্যবাহিনী	-10161
▁স্পন্দনগুলো	-10162
▁স্বাভাবিকের	-10163
▁হাওয়াইয়ের	-10164
▁applications	-10165
▁conservative	-10166
▁disadvantage	-10167
▁experiencing	-10168
▁increasingly	-10169
▁legalization	-10170
▁maroochydore	-10171
▁nationalised	-10172
▁neighborhood	-10173
▁nevertheless	-10174
▁preparations	-10175
▁presidential	-10176
▁registration	-10177
▁restrictions	-10178
▁successfully	-10179
▁supermarkets	-10180
▁temperatures	-10181
▁velociraptor	-10182
▁volunteering	-10183
▁অংশগ্রহণকারী	-10184
▁অগ্নিকাণ্ডের	-10185
▁অপ্রয়োজনীয়	-10186
▁অ্যাসিরিয়ান	-10187
▁আজারবাইজানের	-10188
▁উদাহরণস্বরূপ	-10189
▁ক্যারিবিয়ান	-10190
▁খেলোয়াড়েরা	-10191
▁গন্তব্যগুলির	-10192
▁ট্রাইসেরাটপস	-10193
▁তুতেনখামেনের	-10194
▁দীর্ঘমেয়াদী	-10195
▁ধ্বংসপ্রাপ্ত	-10196
▁নাইট্রোজেনের	-10197
▁পুনর্নির্মাণ	-10198
▁প্রক্রিয়াতে	-10199
▁প্রতিক্রিয়া	-10200
▁প্রাথমিকভাবে	-10201
▁প্রোভেনজানোর	-10202
▁বিমানবন্দরের	-10203
▁ব্রাজিলিয়ান	-10204
▁ভাড়াটিয়ারা	-10205
▁ভেনিজুয়েলার	-10206
▁ভ্রমণকারীদের	-10207
▁যুক্তরাজ্যের	-10208
▁লুক্সেমবার্গ	-10209
▁সংস্থাগুলোকে	-10210
▁সম্পূর্ণরূপে	-10211
▁স্থানান্তরিত	-10212
▁স্বয়ংক্রিয়	-10213
▁হাঙ্গেরিয়ান	-10214
▁concentration	-10215
▁constructions	-10216
▁hesperonychus	-10217
▁mediterranean	-10218
▁opportunities	-10219
▁organizations	-10220
▁significantly	-10221
▁sophisticated	-10222
▁অ্যাপপ্লিকেশন	-10223
▁ইনফ্লুয়েঞ্জা	-10224
▁উত্তরাধিকারের	-10225
▁ক্যাম্পিংয়ের	-10226
▁প্রতিস্থাপনের	-10227
▁প্রধানমন্ত্রী	-10228
▁বিক্ষোভকারীরা	-10229
▁যুক্তরাষ্ট্রে	-10230
▁reinforcements	-10231
▁transportation	-10232
▁অন্ত্যেষ্টিক্র	-10233
▁আনুষ্ঠানিকভাবে	-10234
▁পরিবহণব্যবস্থা	-10235
▁প্রতিদ্বন্দ্বী	-10236
▁প্রয়োজনীয়তার	-10237
▁বিশ্ববিদ্যালয়	-10238
▁অ্যান্টার্কটিকা	-10239
▁উল্লেখযোগ্যভাবে	-10240
▁ক্যালিফোর্নিয়া	-10241
,9	-10242
--	-10243
.5	-10244
/5	-10245
17	-10246
3%	-10247
3,	-10248
33	-10249
40	-10250
45	-10251
48	-10252
72	-10253
77	-10254
8%	-10255
80	-10256
91	-10257
:4	-10258
BC	-10259
FT	-10260
IN	-10261
MA	-10262
MR	-10263
OH	-10264
OV	-10265
af	-10266
bl	-10267
cm	-10268
cr	-10269
dp	-10270
eb	-10271
fC	-10272
fy	-10273
gi	-10274
gk	-10275
gl	-10276
gu	-10277
ih	-10278
jj	-10279
jr	-10280
kh	-10281
kv	-10282
mi	-10283
mr	-10284
no	-10285
oh	-10286
oç	-10287
py	-10288
rd	-10289
sm	-10290
sn	-10291
sw	-10292
tr	-10293
ua	-10294
ug	-10295
wa	-10296
wy	-10297
ze	-10298
zo	-10299
83	-10300
wr	-10301
ça	-10302
és	-10303
ón	-10304
üm	-10305
।'	-10306
ংক	-10307
অন	-10308
অপ	-10309
অল	-10310
অস	-10311
আজ	-10312
আন	-10313
ইও	-10314
ইন	-10315
ইল	-10316
উপ	-10317
উস	-10318
এম	-10319
কই	-10320
কন	-10321
কস	-10322
কী	-10323
খী	-10324
গই	-10325
গী	-10326
ঘণ	-10327
ঘু	-10328
ঘো	-10329
চম	-10330
চর	-10331
চা	-10332
ছন	-10333
ছর	-10334
জো	-10335
জৌ	-10336
টপ	-10337
ঠি	-10338
ডে	-10339
ণী	-10340
তৈ	-10341
দু	-10342
দো	-10343
ধক	-10344
ধন	-10345
ধা	-10346
নন	-10347
নস	-10348
নু	-10349
নৌ	-10350
পক	-10351
পী	-10352
পৃ	-10353
ফথ	-10354
বণ	-10355
ভী	-10356
মচ	-10357
মর	-10358
মু	-10359
মো	-10360
ম্	-10361
মৎ	-10362
যে	-10363
রো	-10364
লজ	-10365
লভ	-10366
লী	-10367
শক	-10368
শত	-10369
শে	-10370
ষদ	-10371
সথ	-10372
সর	-10373
সু	-10374
সৈ	-10375
হন	-10376
হ্	-10377
াও	-10378
াচ	-10379
াষ	-10380
িথ	-10381
ুচ	-10382
ুড	-10383
ুস	-10384
েও	-10385
েজ	-10386
েপ	-10387
ৈত	-10388
ৈশ	-10389
ৌম	-10390
ৎস	-10391
০২	-10392
১৩	-10393
১৭	-10394
২০	-10395
৩৯	-10396
৫০	-10397
৫৬	-10398
৬৫	-10399
'-	-10400
)-	-10401
.7	-10402
02	-10403
AE	-10404
Ta	-10405
ংঘ	-10406
কভ	-10407
গণ	-10408
ঝু	-10409
ণো	-10410
তট	-10411
নভ	-10412
রজ	-10413
ূচ	-10414
ূম	-10415
১১	-10416
১৮	-10417
৭৭	-10418
৮০	-10419
৮১	-10420
৯১	-10421
–1	-10422
▁)	-10423
▁F	-10424
▁U	-10425
▁V	-10426
▁[	-10427
▁q	-10428
▁—	-10429
30,	-10430
773	-10431
:46	-10432
CMA	-10433
ana	-10434
anb	-10435
apo	-10436
aze	-10437
bia	-10438
biv	-10439
cal	-10440
cas	-10441
cin	-10442
cle	-10443
clo	-10444
ean	-10445
ege	-10446
ero	-10447
fal	-10448
gat	-10449
gle	-10450
hat	-10451
hra	-10452
ico	-10453
igo	-10454
imb	-10455
ink	-10456
irk	-10457
irl	-10458
iva	-10459
kan	-10460
kim	-10461
koç	-10462
ler	-10463
lor	-10464
lou	-10465
lyf	-10466
men	-10467
mer	-10468
met	-10469
mil	-10470
nov	-10471
ola	-10472
oud	-10473
pec	-10474
ror	-10475
sts	-10476
sur	-10477
tch	-10478
ths	-10479
tih	-10480
tra	-10481
uba	-10482
van	-10483
vie	-10484
wat	-10485
whe	-10486
xes	-10487
xlo	-10488
yat	-10489
ype	-10490
yuz	-10491
zee	-10492
zek	-10493
zum	-10494
ইভি	-10495
এইচ	-10496
এমন	-10497
করা	-10498
করি	-10499
-5	-10500
.'	-10501
.)	-10502
27	-10503
:2	-10504
BA	-10505
BS	-10506
ID	-10507
OC	-10508
PN	-10509
ST	-10510
VD	-10511
dh	-10512
xy	-10513
úb	-10514
ণন	-10515
৭২	-10516
▁K	-10517
▁S	-10518
▁Y	-10519
▁]	-10520
STN	-10521
rep	-10522
rot	-10523
ulo	-10524
via	-10525
কোষ	-10526
গাছ	-10527
গ্য	-10528
গ্ল	-10529
ঘ্র	-10530
ঙুল	-10531
চটে	-10532
চাস	-10533
জুহ	-10534
টর্	-10535
টিও	-10536
টোই	-10537
ট্ট	-10538
ডাক	-10539
ডান	-10540
ডিও	-10541
ডোম	-10542
তুট	-10543
নলে	-10544
নসে	-10545
নাক	-10546
পদক	-10547
পরী	-10548
পাল	-10549
পোষ	-10550
ফান	-10551
ফিং	-10552
ফুট	-10553
ফেস	-10554
বিন	-10555
ভাস	-10556
ময়	-10557
মহল	-10558
মিং	-10559
মুর	-10560
মেই	-10561
মেও	-10562
যখন	-10563
যাই	-10564
রকম	-10565
রাত	-10566
রেড	-10567
ল্ল	-10568
সংখ	-10569
সছে	-10570
সোর	-10571
হয়	-10572
হাজ	-10573
হান	-10574
াছু	-10575
ানস	-10576
াভি	-10577
ারু	-10578
াসা	-10579
াহক	-10580
িঁট	-10581
িংক	-10582
িটচ	-10583
িটো	-10584
িনো	-10585
িমা	-10586
িলন	-10587
িলম	-10588
িলো	-10589
ীসং	-10590
েনগ	-10591
েনি	-10592
েরু	-10593
েরৎ	-10594
োটে	-10595
োবি	-10596
্টে	-10597
্তি	-10598
্তে	-10599
',	-10600
pn	-10601
ão	-10602
ঁধ	-10603
কচ	-10604
গৎ	-10605
চস	-10606
টস	-10607
তস	-10608
▁ঔ	-10609
▁ষ	-10610
hur	-10611
omy	-10612
পেক	-10613
বদল	-10614
বেক	-10615
ানল	-10616
িসি	-10617
ুমা	-10618
েইড	-10619
্বভ	-10620
্মত	-10621
্যো	-10622
্রচ	-10623
্রী	-10624
▁3.	-10625
▁7'	-10626
▁75	-10627
▁MR	-10628
▁Ta	-10629
▁bi	-10630
▁cu	-10631
▁fa	-10632
▁fj	-10633
▁pc	-10634
▁pi	-10635
▁py	-10636
▁wl	-10637
▁অগ	-10638
▁অজ	-10639
▁আঁ	-10640
▁আদ	-10641
▁ইট	-10642
▁উচ	-10643
▁কব	-10644
▁কু	-10645
▁খস	-10646
▁খো	-10647
▁গর	-10648
▁টো	-10649
▁দি	-10650
▁নম	-10651
▁পচ	-10652
▁পট	-10653
▁ফর	-10654
▁বক	-10655
▁বৌ	-10656
▁মক	-10657
▁মম	-10658
▁যশ	-10659
▁যী	-10660
▁রৌ	-10661
▁শী	-10662
▁সফ	-10663
▁সৃ	-10664
▁১৪	-10665
$30,	-10666
00,9	-10667
39).	-10668
abed	-10669
abre	-10670
achu	-10671
acts	-10672
agor	-10673
aion	-10674
amom	-10675
ando	-10676
anga	-10677
arse	-10678
asma	-10679
asty	-10680
atal	-10681
atte	-10682
aved	-10683
avil	-10684
bate	-10685
bbed	-10686
call	-10687
chid	-10688
cone	-10689
dney	-10690
elaw	-10691
elia	-10692
elty	-10693
enst	-10694
enty	-10695
eria	-10696
eybo	-10697
geum	-10698
gyel	-10699
।।	-10700
ঁপ	-10701
খম	-10702
ঝি	-10703
ঠক	-10704
ডথ	-10705
ডব	-10706
সৌ	-10707
ৌর	-10708
4.7	-10709
ago	-10710
cov	-10711
orp	-10712
প্য	-10713
ভিল	-10714
র্ষ	-10715
ুবচ	-10716
aign	-10717
aswa	-10718
emic	-10719
hers	-10720
iaop	-10721
icem	-10722
icia	-10723
idly	-10724
igur	-10725
iles	-10726
ille	-10727
imps	-10728
inds	-10729
ingr	-10730
irby	-10731
iscl	-10732
itic	-10733
izab	-10734
lago	-10735
llow	-10736
nels	-10737
nger	-10738
nity	-10739
ocab	-10740
odel	-10741
olia	-10742
olom	-10743
olve	-10744
omul	-10745
onor	-10746
onse	-10747
ooth	-10748
orge	-10749
oron	-10750
orts	-10751
osso	-10752
othe	-10753
ouns	-10754
ouri	-10755
oves	-10756
pace	-10757
paid	-10758
ping	-10759
raid	-10760
rame	-10761
requ	-10762
rief	-10763
ript	-10764
rout	-10765
rows	-10766
sche	-10767
sect	-10768
sion	-10769
tter	-10770
ucci	-10771
veil	-10772
wing	-10773
ysse	-10774
অনুম	-10775
অপার	-10776
আলাস	-10777
উইডথ	-10778
ওরিও	-10779
ও্যা	-10780
কচকে	-10781
করতে	-10782
কারা	-10783
কোনও	-10784
ক্যা	-10785
খানা	-10786
চ্ছি	-10787
ছড়ে	-10788
জিচে	-10789
জুতো	-10790
জুরি	-10791
ঞ্জস	-10792
টচটে	-10793
টায়	-10794
ঠাকে	-10795
তবুও	-10796
তিরে	-10797
তির্	-10798
দনের	-10799
ঃ৪	-10800
ি৪	-10801
২৪	-10802
৫১	-10803
৫৫	-10804
৬৪	-10805
৭৯	-10806
৮৩	-10807
cca	-10808
hei	-10809
hem	-10810
hep	-10811
ini	-10812
win	-10813
yan	-10814
ঃ৪৬	-10815
ফিস	-10816
াতন	-10817
েষজ	-10818
২৪৩	-10819
৭৬৪	-10820
▁gi	-10821
▁থা	-10822
esel	-10823
roso	-10824
ustr	-10825
কুটে	-10826
জ্বর	-10827
ত্তর	-10828
ধকতা	-10829
নাতন	-10830
নিচে	-10831
ন্তর	-10832
পুজো	-10833
পেরি	-10834
প্তম	-10835
বহাল	-10836
বারি	-10837
বাসা	-10838
বেশী	-10839
ব্রে	-10840
মাপু	-10841
মাবল	-10842
যদিও	-10843
য়য়	-10844
যোগে	-10845
রফিন	-10846
রিয়	-10847
র্দখ	-10848
লন্ত	-10849
ল্যা	-10850
শনটি	-10851
শ্বে	-10852
শ্রে	-10853
সেলে	-10854
সৌরি	-10855
স্কর	-10856
স্টচ	-10857
হণের	-10858
হয়ে	-10859
হিতি	-10860
াইমজ	-10861
াইলট	-10862
াকরী	-10863
াকুই	-10864
াকেও	-10865
াজিত	-10866
াটোল	-10867
াদনে	-10868
াপুর	-10869
াবেন	-10870
াভাব	-10871
াময়	-10872
ামরা	-10873
ারার	-10874
ালরা	-10875
ালিক	-10876
াসতে	-10877
াসূচ	-10878
াসেই	-10879
িকাস	-10880
িকেট	-10881
িকোল	-10882
িজি৪	-10883
িটেস	-10884
িতির	-10885
িনাস	-10886
িনোর	-10887
িপিল	-10888
িব্ব	-10889
িয়ঃ	-10890
িয়ত	-10891
িরিট	-10892
িরিপ	-10893
িলাম	-10894
িলিও	-10895
ীনতা	-10896
ুকনো	-10897
ুম্ব	-10898
ূনতম	-10899
agr	-10900
ino	-10901
pen	-10902
rem	-10903
খিল	-10904
ঠের	-10905
দার	-10906
ধের	-10907
ভের	-10908
ষের	-10909
ামত	-10910
ুবা	-10911
েজন	-10912
েরণ	-10913
▁cm	-10914
▁kv	-10915
▁si	-10916
▁এট	-10917
▁কথ	-10918
▁কপ	-10919
▁বন	-10920
▁রজ	-10921
▁সক	-10922
▁সল	-10923
enin	-10924
heng	-10925
hero	-10926
imat	-10927
ircl	-10928
itut	-10929
qual	-10930
teng	-10931
াজজা	-10932
াণ্ড	-10933
াত্ব	-10934
ালেখ	-10935
ূমকে	-10936
ৃক্ত	-10937
েজুম	-10938
োঁতা	-10939
োকোড	-10940
োক্ল	-10941
োঙ্গ	-10942
োনলে	-10943
োমাক	-10944
োমুল	-10945
োয়া	-10946
োলান	-10947
োস্ফ	-10948
্তিজ	-10949
্থান	-10950
্ধতা	-10951
্বান	-10952
্যাচ	-10953
্রমো	-10954
্রয়	-10955
্রিন	-10956
্সেস	-10957
২৯টি	-10958
–160	-10959
▁(64	-10960
▁190	-10961
▁21,	-10962
▁28,	-10963
▁2:2	-10964
▁88%	-10965
▁991	-10966
▁AfC	-10967
▁PBS	-10968
▁abc	-10969
▁abn	-10970
▁ack	-10971
▁alp	-10972
▁asf	-10973
▁ask	-10974
▁bay	-10975
▁cad	-10976
▁dar	-10977
▁dil	-10978
▁dow	-10979
▁dro	-10980
▁dux	-10981
▁eld	-10982
▁elk	-10983
▁exe	-10984
▁fas	-10985
▁fen	-10986
▁fix	-10987
▁gut	-10988
▁hor	-10989
▁ire	-10990
▁jes	-10991
▁jim	-10992
▁mau	-10993
▁mer	-10994
▁mex	-10995
▁mob	-10996
▁mut	-10997
▁nig	-10998
▁nik	-10999
ann	-11000
cun	-11001
ere	-11002
hop	-11003
igl	-11004
reb	-11005
tty	-11006
wak	-11007
yer	-11008
জান	-11009
ট্য	-11010
ম্র	-11011
স্র	-11012
েরও	-11013
্রন	-11014
▁cg	-11015
▁os	-11016
▁sn	-11017
▁এউ	-11018
aced	-11019
eren	-11020
olam	-11021
omal	-11022
orms	-11023
আইনী	-11024
উনকে	-11025
ঙ্গু	-11026
স্তব	-11027
াইটি	-11028
াজুক	-11029
▁cin	-11030
▁nut	-11031
▁pan	-11032
▁ped	-11033
▁pou	-11034
▁pue	-11035
▁rip	-11036
▁rot	-11037
▁rov	-11038
▁sec	-11039
▁ses	-11040
▁shy	-11041
▁sil	-11042
▁tal	-11043
▁tam	-11044
▁tit	-11045
▁ult	-11046
▁wil	-11047
▁wip	-11048
▁wit	-11049
▁yor	-11050
▁£27	-11051
▁অকল	-11052
▁অ্য	-11053
▁আইড	-11054
▁আলি	-11055
▁ইভা	-11056
▁ইমে	-11057
▁উপপ	-11058
▁এরা	-11059
▁করক	-11060
▁কর্	-11061
▁কিস	-11062
▁কেস	-11063
▁খাম	-11064
▁গনু	-11065
▁গার	-11066
▁গোর	-11067
▁গৌর	-11068
▁চমৎ	-11069
▁চিল	-11070
▁চুল	-11071
▁জনশ	-11072
▁জলা	-11073
▁জলে	-11074
▁জেএ	-11075
▁টাই	-11076
▁টিউ	-11077
▁টিক	-11078
▁ঠেক	-11079
▁ডাম	-11080
▁ডার	-11081
▁তর্	-11082
▁তোল	-11083
▁দেল	-11084
▁ধরা	-11085
▁ধাঁ	-11086
▁নাল	-11087
▁নিট	-11088
▁নিপ	-11089
▁নুন	-11090
▁পদক	-11091
▁পশু	-11092
▁ফাল	-11093
▁ফুর	-11094
▁বিএ	-11095
▁বোল	-11096
▁ভোগ	-11097
▁মাউ	-11098
▁মিঃ	-11099
ais	-11100
anv	-11101
anz	-11102
bol	-11103
jon	-11104
lis	-11105
mat	-11106
onu	-11107
ংকং	-11108
কেন	-11109
গিত	-11110
ধীন	-11111
নিশ	-11112
শ্ল	-11113
সান	-11114
ানত	-11115
▁bh	-11116
অর্থ	-11117
ড়েন	-11118
তলের	-11119
বাধে	-11120
ার্দ	-11121
িরির	-11122
▁bat	-11123
▁bid	-11124
▁ret	-11125
▁sam	-11126
▁son	-11127
▁wee	-11128
▁wre	-11129
▁অদল	-11130
▁জনি	-11131
▁ফাই	-11132
▁বগি	-11133
▁ম্য	-11134
▁ম্ল	-11135
▁যাজ	-11136
▁রাও	-11137
▁রিল	-11138
▁রিস	-11139
▁রীত	-11140
▁রেট	-11141
▁লাক	-11142
▁লুক	-11143
▁শোন	-11144
▁সংল	-11145
▁সচল	-11146
▁সবে	-11147
▁সরল	-11148
▁সাপ	-11149
▁সিম	-11150
▁সিল	-11151
▁সিস	-11152
▁সের	-11153
▁হাও	-11154
▁হিজ	-11155
▁হুন	-11156
▁১০৪	-11157
▁৪৬৮	-11158
▁৪৮০	-11159
▁৭৮৩	-11160
ailed	-11161
ainos	-11162
alang	-11163
anbul	-11164
andra	-11165
andro	-11166
anson	-11167
apply	-11168
apsed	-11169
atero	-11170
banks	-11171
cella	-11172
conqu	-11173
cycle	-11174
dance	-11175
elong	-11176
ement	-11177
erals	-11178
eters	-11179
ethal	-11180
geria	-11181
gical	-11182
icted	-11183
igged	-11184
ikers	-11185
inbur	-11186
ioned	-11187
iovan	-11188
iring	-11189
isers	-11190
isine	-11191
isode	-11192
itals	-11193
itles	-11194
ivaji	-11195
lease	-11196
lejon	-11197
llino	-11198
notch	-11199
bit	-11200
ded	-11201
eed	-11202
ees	-11203
esl	-11204
kes	-11205
nba	-11206
oor	-11207
zed	-11208
জিও	-11209
মিড	-11210
▁1'	-11211
▁ডক	-11212
▁নই	-11213
▁নল	-11214
▁হজ	-11215
▁হস	-11216
abak	-11217
alan	-11218
anda	-11219
ator	-11220
ened	-11221
erly	-11222
iser	-11223
owsk	-11224
quir	-11225
rees	-11226
ক্রে	-11227
লজিক	-11228
িপির	-11229
িস্ত	-11230
▁bor	-11231
▁ces	-11232
▁nba	-11233
▁এরই	-11234
▁রোধ	-11235
▁শুল	-11236
▁হের	-11237
abakh	-11238
ciano	-11239
eslie	-11240
ighur	-11241
oglou	-11242
olini	-11243
ongol	-11244
ordel	-11245
ordon	-11246
otong	-11247
overs	-11248
owers	-11249
owski	-11250
oying	-11251
pired	-11252
plete	-11253
plicy	-11254
pread	-11255
quiry	-11256
rokes	-11257
route	-11258
seers	-11259
sider	-11260
small	-11261
space	-11262
thans	-11263
throp	-11264
tihad	-11265
trans	-11266
ujian	-11267
ulary	-11268
urers	-11269
wards	-11270
xible	-11271
xygen	-11272
ওয়াং	-11273
ওয়াই	-11274
ওয়ের	-11275
কয়েক	-11276
কানুন	-11277
কিডকে	-11278
কেটের	-11279
ক্রেগ	-11280
ক্সিন	-11281
গতিতে	-11282
ঙ্গতি	-11283
জার্ন	-11284
জিনিস	-11285
জীবনদ	-11286
টালির	-11287
ট্রয়	-11288
তাপাত	-11289
ত্বকে	-11290
দভাবে	-11291
নাকরা	-11292
নাঞ্চ	-11293
নিকের	-11294
ন্দ্র	-11295
পুলিশ	-11296
প্রথম	-11297
প্রিম	-11298
ফেব্র	-11299
ale	-11300
asp	-11301
iou	-11302
oro	-11303
plo	-11304
গটি	-11305
চটি	-11306
মিউ	-11307
ষটি	-11308
▁mü	-11309
▁মৈ	-11310
▁যথ	-11311
airo	-11312
fing	-11313
inal	-11314
ingo	-11315
opes	-11316
oral	-11317
oton	-11318
ঙ্গক	-11319
ম্পা	-11320
ার্প	-11321
্লেড	-11322
▁fal	-11323
▁hom	-11324
▁ink	-11325
▁ist	-11326
▁mis	-11327
▁qat	-11328
▁suv	-11329
▁ডেই	-11330
▁পাব	-11331
aling	-11332
aning	-11333
garia	-11334
uling	-11335
ত্তয়	-11336
ফোনটি	-11337
বর্তন	-11338
বর্ষণ	-11339
বারিক	-11340
বিভাগ	-11341
ভোগীর	-11342
মাপের	-11343
মুরগী	-11344
য়বার	-11345
যোগের	-11346
রোচিত	-11347
র্টগে	-11348
র্ডেল	-11349
ল্যকর	-11350
শিরিপ	-11351
ষ্ঠিত	-11352
সঙ্গে	-11353
সন্দে	-11354
সারণর	-11355
সিম্প	-11356
স্কিম	-11357
স্বরে	-11358
হাতের	-11359
হার্য	-11360
হ্যাল	-11361
াইজের	-11362
াইলের	-11363
াগ্রে	-11364
াড়ের	-11365
াড্রন	-11366
ানজান	-11367
াবেথা	-11368
াব্যব	-11369
ামুটি	-11370
ারুয়	-11371
ার্জি	-11372
ার্সব	-11373
ালম্ব	-11374
াশিকে	-11375
াস্টম	-11376
িংহাস	-11377
িকাতে	-11378
িকিৎস	-11379
িকেরা	-11380
িটিকে	-11381
িটিভি	-11382
িতায়	-11383
িয়াল	-11384
িয়াহ	-11385
িয়িং	-11386
িলিপি	-11387
িশালা	-11388
িসবেন	-11389
ীসংগঠ	-11390
ুইয়ে	-11391
ুচিকে	-11392
ুদ্ধি	-11393
ুম্বী	-11394
ুয়ের	-11395
ুয়েল	-11396
ুলগের	-11397
ৃতিতে	-11398
েত্রে	-11399
ias	-11400
kar	-11401
lar	-11402
টিম	-11403
শবে	-11404
িডন	-11405
▁UW	-11406
▁নং	-11407
▁নু	-11408
▁নূ	-11409
▁নৃ	-11410
onov	-11411
taib	-11412
ঃসরণ	-11413
তরোহ	-11414
পিংক	-11415
রিতে	-11416
র্তস	-11417
িশ্চ	-11418
▁(10	-11419
▁anc	-11420
▁mur	-11421
▁pst	-11422
▁আছি	-11423
▁কেদ	-11424
▁খান	-11425
▁ধরন	-11426
▁বেন	-11427
▁রুট	-11428
▁শাস	-11429
chool	-11430
erous	-11431
taiba	-11432
গুলিও	-11433
ঞ্জির	-11434
তরোহন	-11435
পারোন	-11436
র্সেল	-11437
িডনিস	-11438
ুলিপি	-11439
েনস্ট	-11440
েন্টে	-11441
েরিতে	-11442
োনসোর	-11443
োপসের	-11444
্টিংস	-11445
্দ্রে	-11446
্বরের	-11447
্যদের	-11448
্রেগল	-11449
▁"200	-11450
▁$2.3	-11451
▁(149	-11452
▁1759	-11453
▁1958	-11454
▁1979	-11455
▁1988	-11456
▁2000	-11457
▁2006	-11458
▁8:46	-11459
▁aege	-11460
▁amaz	-11461
▁amir	-11462
▁anat	-11463
▁arte	-11464
▁asia	-11465
▁bard	-11466
▁beat	-11467
▁bohr	-11468
▁cart	-11469
▁cere	-11470
▁chim	-11471
▁chos	-11472
▁cite	-11473
▁crun	-11474
▁dign	-11475
▁dorm	-11476
▁exer	-11477
▁expo	-11478
▁fern	-11479
▁firm	-11480
▁fram	-11481
▁gate	-11482
▁gonu	-11483
▁gues	-11484
▁hast	-11485
▁heck	-11486
▁hier	-11487
▁hone	-11488
▁hong	-11489
▁hund	-11490
▁hybr	-11491
▁ince	-11492
▁inch	-11493
▁intr	-11494
▁jets	-11495
▁jose	-11496
▁kens	-11497
▁kiss	-11498
▁late	-11499
emy	-11500
ঁকে	-11501
কেই	-11502
কেউ	-11503
কেও	-11504
কেট	-11505
কেল	-11506
চর্	-11507
ফ্ট	-11508
বহু	-11509
র্জ	-11510
লাস	-11511
শনও	-11512
সভা	-11513
োজন	-11514
োণো	-11515
োরো	-11516
▁hk	-11517
▁ছো	-11518
azza	-11519
rant	-11520
rary	-11521
ভার্	-11522
য়েই	-11523
য়েড	-11524
য়েম	-11525
র্কে	-11526
সূতি	-11527
▁3-5	-11528
▁arr	-11529
▁der	-11530
▁tob	-11531
▁tow	-11532
▁জয়	-11533
▁ঝাং	-11534
irals	-11535
ouval	-11536
while	-11537
yland	-11538
াট্টা	-11539
ানিয়	-11540
ামারী	-11541
ার্থক	-11542
োসফ্ট	-11543
▁bost	-11544
▁loss	-11545
▁maas	-11546
▁mail	-11547
▁mapp	-11548
▁mars	-11549
▁mast	-11550
▁mist	-11551
▁moas	-11552
▁mown	-11553
▁muse	-11554
▁nick	-11555
▁none	-11556
▁paro	-11557
▁pati	-11558
▁pian	-11559
▁poly	-11560
▁prel	-11561
▁pubs	-11562
▁resc	-11563
▁reve	-11564
▁ring	-11565
▁riom	-11566
▁rook	-11567
▁sacr	-11568
▁sase	-11569
▁sett	-11570
▁span	-11571
▁spik	-11572
▁stem	-11573
▁stol	-11574
▁tanz	-11575
▁ther	-11576
▁ties	-11577
▁tree	-11578
▁trut	-11579
▁unav	-11580
▁vast	-11581
▁whom	-11582
▁wlad	-11583
▁অধিভ	-11584
▁অনভি	-11585
▁অনুপ	-11586
▁অভিশ	-11587
▁আইপি	-11588
▁আওয়	-11589
▁আগুন	-11590
▁আঙুল	-11591
▁আজীব	-11592
▁আদান	-11593
▁আয়ত	-11594
▁আলগা	-11595
▁আ্যস	-11596
▁ইনপু	-11597
▁ইন্দ	-11598
▁ইস্ত	-11599
nas	-11600
omm	-11601
rap	-11602
কুন	-11603
গিল	-11604
গেট	-11605
ডাস	-11606
তেও	-11607
মোদ	-11608
সিল	-11609
▁ওহ	-11610
atih	-11611
iety	-11612
inas	-11613
inic	-11614
onom	-11615
quim	-11616
team	-11617
utsk	-11618
িলের	-11619
▁dom	-11620
▁lic	-11621
▁wom	-11622
▁ছিঁ	-11623
▁সতে	-11624
aquim	-11625
asing	-11626
kutsk	-11627
osits	-11628
vehic	-11629
ymnas	-11630
গোতেও	-11631
দিকের	-11632
াকগিল	-11633
ায়নে	-11634
িধ্যে	-11635
োর্টস	-11636
ৌমত্ব	-11637
▁assa	-11638
▁pstn	-11639
▁rena	-11640
▁send	-11641
▁ইস্প	-11642
▁উচিৎ	-11643
▁উর্দ	-11644
▁একাক	-11645
▁এক্ষ	-11646
▁এফিস	-11647
▁এমনও	-11648
▁এরপর	-11649
▁এসছে	-11650
▁ওজনে	-11651
▁ওটার	-11652
▁ওহুর	-11653
▁করছি	-11654
▁করের	-11655
▁কষ্ট	-11656
▁কালে	-11657
▁ক্লা	-11658
▁খরচে	-11659
▁গন্ত	-11660
▁গর্ড	-11661
▁গায়	-11662
▁গুগল	-11663
▁গ্রু	-11664
▁ঘটার	-11665
▁চিটচ	-11666
▁ছবিত	-11667
▁ছায়	-11668
▁জোটই	-11669
▁জ্যো	-11670
▁টিকে	-11671
▁ডাকঘ	-11672
▁ডাবল	-11673
▁তপ্ত	-11674
▁দড়ি	-11675
▁দাতা	-11676
▁দায়	-11677
▁দার্	-11678
▁দেড়	-11679
▁দেবে	-11680
▁ধরার	-11681
▁নখটি	-11682
▁নথিপ	-11683
▁নভেম	-11684
▁নর্থ	-11685
▁নাতি	-11686
▁নিউর	-11687
▁পররা	-11688
▁পরিব	-11689
▁পারা	-11690
▁প্রজ	-11691
▁প্রণ	-11692
▁প্রে	-11693
▁ফসিল	-11694
▁ফাঁক	-11695
▁ফ্রি	-11696
▁বকবক	-11697
▁বজ্র	-11698
▁বয়ে	-11699
ili	-11700
jur	-11701
এবং	-11702
গিক	-11703
বেট	-11704
বেথ	-11705
াখা	-11706
িকপ	-11707
িকু	-11708
োভা	-11709
▁KV	-11710
bass	-11711
bene	-11712
ieth	-11713
omir	-11714
oted	-11715
নীয়	-11716
ায়া	-11717
োজিত	-11718
োভাক	-11719
▁nan	-11720
▁nim	-11721
▁nin	-11722
▁গির	-11723
▁রার	-11724
▁সুম	-11725
aders	-11726
bassy	-11727
inion	-11728
orbed	-11729
uxili	-11730
গভাসন	-11731
দেরকে	-11732
লিয়া	-11733
াদেশে	-11734
িয়নে	-11735
ুতদের	-11736
েলিকপ	-11737
্বসিত	-11738
▁ariz	-11739
▁dens	-11740
▁gren	-11741
▁kory	-11742
▁redu	-11743
▁এবংন	-11744
▁পাচ্	-11745
▁বলের	-11746
▁বহুর	-11747
▁বাহক	-11748
▁বিনা	-11749
▁বুধে	-11750
▁বৃষ্	-11751
▁ভাসে	-11752
▁মডেল	-11753
▁মতভে	-11754
▁মাচু	-11755
▁মাথা	-11756
▁মোতা	-11757
▁রকের	-11758
▁রঙিন	-11759
▁রম্ন	-11760
▁রিনা	-11761
▁রোগে	-11762
▁রোমন	-11763
▁লাগে	-11764
▁লোকে	-11765
▁শাখা	-11766
▁শিবা	-11767
▁শেখা	-11768
▁শোয়	-11769
▁সংবে	-11770
▁সত্ব	-11771
▁সন্ন	-11772
▁সমকো	-11773
▁সমাহ	-11774
▁সাসে	-11775
▁সৃজন	-11776
▁সেটা	-11777
▁সেতু	-11778
▁সেশন	-11779
▁স্বত	-11780
▁হবেন	-11781
▁হয়ত	-11782
▁হলাম	-11783
▁হলের	-11784
▁হস্ত	-11785
▁হানে	-11786
▁১৯৯৫	-11787
▁৮ঃ৪৬	-11788
alaska	-11789
anover	-11790
anteed	-11791
atever	-11792
cation	-11793
culate	-11794
endent	-11795
eneral	-11796
enging	-11797
ensing	-11798
extrem	-11799
sem	-11800
কুল	-11801
াইভ	-11802
িএল	-11803
িশন	-11804
ুলল	-11805
ুলা	-11806
▁ec	-11807
▁eu	-11808
▁uw	-11809
enei	-11810
gent	-11811
ilit	-11812
nove	-11813
টনের	-11814
পেইড	-11815
প্যা	-11816
ালান	-11817
▁(""	-11818
▁mam	-11819
▁mid	-11820
▁seg	-11821
▁অনি	-11822
▁ওভে	-11823
▁নেন	-11824
▁বিচ	-11825
▁বিট	-11826
▁বিড	-11827
▁বিধ	-11828
anent	-11829
gsmar	-11830
rayal	-11831
uckle	-11832
ংঘনের	-11833
ধরণের	-11834
স্থাই	-11835
াইভেট	-11836
িএলএর	-11837
ুলায়	-11838
োজিশন	-11839
▁(133	-11840
▁bent	-11841
▁capt	-11842
▁door	-11843
▁ecst	-11844
▁mamm	-11845
▁ment	-11846
▁tent	-11847
▁wake	-11848
▁আচ্ছ	-11849
▁করাই	-11850
▁কিয়	-11851
▁খুলল	-11852
▁গর্স	-11853
▁টনলে	-11854
▁টার্	-11855
▁ঢেকে	-11856
▁বিকে	-11857
▁মিনি	-11858
falgar	-11859
ficial	-11860
gators	-11861
iances	-11862
ikings	-11863
inging	-11864
ioglou	-11865
irming	-11866
istler	-11867
istoph	-11868
itment	-11869
ivated	-11870
juring	-11871
modern	-11872
necess	-11873
ogenic	-11874
onseca	-11875
opolam	-11876
ourful	-11877
outing	-11878
peract	-11879
perior	-11880
raints	-11881
ratory	-11882
reased	-11883
ribune	-11884
rosoft	-11885
runner	-11886
tering	-11887
things	-11888
vasson	-11889
yatoll	-11890
ংযোগের	-11891
অ্যালি	-11892
কষ্টের	-11893
ক্তদের	-11894
ক্তিকে	-11895
গোয়ের	-11896
গ্রস্ত	-11897
চর্চার	-11898
চারীরা	-11899
dle	-11900
leq	-11901
sle	-11902
weg	-11903
ঃপর	-11904
খিন	-11905
জনি	-11906
ঠিত	-11907
তিত	-11908
মিন	-11909
হরণ	-11910
্টল	-11911
▁gl	-11912
▁gy	-11913
▁gü	-11914
▁গা	-11915
▁শক	-11916
▁১ম	-11917
▁৩৪	-11918
akou	-11919
ency	-11920
idst	-11921
izic	-11922
long	-11923
অ্যা	-11924
ম্পশ	-11925
াগাল	-11926
ারিন	-11927
াল্ট	-11928
েটের	-11929
োকৃত	-11930
্ট্র	-11931
০টির	-11932
▁bew	-11933
▁অরে	-11934
▁গিন	-11935
▁থ্র	-11936
▁যেই	-11937
▁সংশ	-11938
addle	-11939
alleq	-11940
idley	-11941
ority	-11942
ডিজনি	-11943
পলাইন	-11944
মেক্স	-11945
াকর্ম	-11946
াপহরণ	-11947
্টলোম	-11948
▁Fall	-11949
▁bere	-11950
▁fans	-11951
▁gürs	-11952
▁idah	-11953
▁reed	-11954
▁saff	-11955
▁অনাব	-11956
▁গাছে	-11957
▁জেগে	-11958
▁পরিপ	-11959
▁পারল	-11960
▁পিছল	-11961
jiakou	-11962
little	-11963
orland	-11964
wegian	-11965
অ্যাটা	-11966
গলিয়া	-11967
চুম্বী	-11968
টগুলিও	-11969
টভিয়া	-11970
ডাক্টর	-11971
তলগুলো	-11972
তামূলক	-11973
তিকেরা	-11974
তিক্রম	-11975
ত্তায়	-11976
ধারণের	-11977
ধ্যায়	-11978
নীমূলক	-11979
পত্রের	-11980
পিয়ান	-11981
বলয়ের	-11982
বিদদের	-11983
বুলচার	-11984
ভাগ্যক	-11985
ভাবকের	-11986
ভার্চু	-11987
মনিয়ত	-11988
মহাকাশ	-11989
মেইরাস	-11990
যাইহোক	-11991
রমেন্স	-11992
ষদগুলি	-11993
ষ্টাংশ	-11994
ষ্টাকে	-11995
সমারিন	-11996
সহকারে	-11997
স্কিমো	-11998
স্ট্রম	-11999
unp	-12000
বৈধ	-12001
মোম	-12002
রাঁ	-12003
্পো	-12004
্বা	-12005
৪৮০	-12006
▁(5	-12007
▁উত	-12008
▁চশ	-12009
▁ভল	-12010
▁শপ	-12011
▁শৃ	-12012
▁১২	-12013
amps	-12014
atly	-12015
auge	-12016
ermo	-12017
তাবে	-12018
দ্দি	-12019
বাসে	-12020
াকোপ	-12021
োরাঁ	-12022
▁21.	-12023
▁aka	-12024
▁eve	-12025
▁isn	-12026
▁ply	-12027
▁চির	-12028
▁ভিন	-12029
▁ভৌগ	-12030
ptown	-12031
urity	-12032
uties	-12033
প্রশা	-12034
মোমিল	-12035
হদ্দি	-12036
োরাইড	-12037
্পোরে	-12038
▁(500	-12039
▁glyn	-12040
▁push	-12041
▁একের	-12042
▁করেঃ	-12043
▁চশমা	-12044
▁ফারা	-12045
▁ভলগা	-12046
▁রবার	-12047
▁শৃঙ্	-12048
▁১২০০	-12049
▁১৪৮০	-12050
unpink	-12051
ইলিলের	-12052
ট্রাটা	-12053
স্থাপক	-12054
াগালির	-12055
াগ্রেব	-12056
ান্তিক	-12057
াপকদের	-12058
াপানোর	-12059
ায়ামি	-12060
ার্ন্স	-12061
ার্ফিং	-12062
ার্ভাস	-12063
ার্শ্ব	-12064
ার্সের	-12065
ালাসের	-12066
িকালীন	-12067
িটিকাল	-12068
িনগুলি	-12069
িয়মান	-12070
িয়ানে	-12071
িয়াসে	-12072
িশ্চিত	-12073
ীয়করণ	-12074
ীয়তার	-12075
ুটানের	-12076
ুদ্ধার	-12077
ুম্বাই	-12078
ুরিয়া	-12079
ূন্যের	-12080
েজনাকর	-12081
েজুমার	-12082
েনজানো	-12083
েমধ্যে	-12084
েরিয়া	-12085
েলিয়া	-12086
ৈতিকতা	-12087
োক্লিস	-12088
োভারের	-12089
োলাকোপ	-12090
োলিনির	-12091
্পোরেট	-12092
্বিয়া	-12093
্যগুলো	-12094
্যাপনা	-12095
্লিষ্ঠ	-12096
▁120-1	-12097
▁2013.	-12098
▁2014.	-12099
iro	-12100
rid	-12101
থোজ	-12102
েডি	-12103
▁Io	-12104
aint	-12105
inae	-12106
race	-12107
spca	-12108
টাইট	-12109
তিটি	-12110
ম্যা	-12111
াডকে	-12112
্যাজ	-12113
্যাভ	-12114
▁lay	-12115
▁অবি	-12116
▁ইমপ	-12117
▁কাহ	-12118
▁গলফ	-12119
▁চটি	-12120
▁ছিট	-12121
▁পরম	-12122
▁বাগ	-12123
▁সমু	-12124
cceed	-12125
essel	-12126
minae	-12127
ridor	-12128
xture	-12129
থোজেন	-12130
িবিজি	-12131
্যাকে	-12132
▁অতিস	-12133
▁আটকা	-12134
▁এ্যা	-12135
▁মেলা	-12136
estone	-12137
estyle	-12138
etrate	-12139
format	-12140
isbane	-12141
ounter	-12142
কমান্ড	-12143
টাইটেল	-12144
ভিডেডি	-12145
মাপুচে	-12146
স্থানে	-12147
াইরোবি	-12148
েনিয়া	-12149
োকানোর	-12150
োগমূলক	-12151
▁864).	-12152
▁abuse	-12153
▁accur	-12154
▁agder	-12155
▁amend	-12156
▁arson	-12157
▁asian	-12158
▁atlas	-12159
▁backy	-12160
▁bands	-12161
▁belly	-12162
▁bever	-12163
▁birth	-12164
▁bliss	-12165
▁botan	-12166
▁brand	-12167
▁burns	-12168
▁buses	-12169
▁cairo	-12170
▁capab	-12171
▁capuz	-12172
▁cargo	-12173
▁casas	-12174
▁casey	-12175
▁caves	-12176
▁clara	-12177
▁claws	-12178
▁clear	-12179
▁colog	-12180
▁colum	-12181
▁concl	-12182
▁corps	-12183
▁crewm	-12184
▁delhi	-12185
▁deton	-12186
▁doesn	-12187
▁doors	-12188
▁doses	-12189
▁draft	-12190
▁edges	-12191
▁expan	-12192
▁exper	-12193
▁faith	-12194
▁ferry	-12195
▁fiber	-12196
▁flash	-12197
▁fling	-12198
▁flour	-12199
ctu	-12200
ete	-12201
gow	-12202
uxe	-12203
েবা	-12204
▁uk	-12205
▁ওর	-12206
amid	-12207
crap	-12208
cted	-12209
enet	-12210
etan	-12211
owal	-12212
utch	-12213
অন্য	-12214
আলোর	-12215
নদের	-12216
ন্সে	-12217
ভিয়	-12218
ুত্র	-12219
ুব্ধ	-12220
▁cow	-12221
▁tea	-12222
▁ডকে	-12223
chsur	-12224
dutch	-12225
ছাড়া	-12226
ধ্যেই	-12227
নেছিল	-12228
ফিককে	-12229
বিচার	-12230
ানদের	-12231
ান্ডো	-12232
▁exot	-12233
▁অবির	-12234
▁ওরবি	-12235
▁শস্ত	-12236
▁ষষ্ঠ	-12237
▁সলিস	-12238
▁১৯৪৭	-12239
▁১৯৮১	-12240
ibetan	-12241
ivered	-12242
lasgow	-12243
usters	-12244
yscrap	-12245
ন্দবাদ	-12246
ন্দ্রে	-12247
বিচারক	-12248
ভিয়ের	-12249
▁acute	-12250
▁floyd	-12251
▁footw	-12252
▁garci	-12253
▁gases	-12254
▁gomul	-12255
▁gradu	-12256
▁guard	-12257
▁haris	-12258
▁hints	-12259
▁hitos	-12260
▁holds	-12261
▁idaho	-12262
▁immin	-12263
▁impur	-12264
▁input	-12265
▁intro	-12266
▁jonny	-12267
▁judok	-12268
▁karno	-12269
▁keybo	-12270
▁kowal	-12271
▁lands	-12272
▁lasts	-12273
▁latam	-12274
▁liver	-12275
▁loose	-12276
▁mahal	-12277
▁mixed	-12278
▁motiv	-12279
▁nagas	-12280
▁navys	-12281
▁oppos	-12282
▁optic	-12283
▁ordin	-12284
▁overw	-12285
▁palaw	-12286
▁palme	-12287
▁panam	-12288
▁pavil	-12289
▁perry	-12290
▁photo	-12291
▁picch	-12292
▁plays	-12293
▁poems	-12294
▁postc	-12295
▁poult	-12296
▁prove	-12297
▁quilt	-12298
▁quote	-12299
ডোগ	-12300
মলে	-12301
িরণ	-12302
েশা	-12303
▁৯৩	-12304
akot	-12305
ayed	-12306
rail	-12307
root	-12308
ডোগা	-12309
পনার	-12310
মানু	-12311
য়ির	-12312
র্বি	-12313
িস্ক	-12314
েরির	-12315
্পের	-12316
▁cod	-12317
▁cot	-12318
▁org	-12319
▁pod	-12320
▁yas	-12321
▁অদ্	-12322
▁জোগ	-12323
▁নাস	-12324
▁সাও	-12325
▁সাক	-12326
facts	-12327
ighed	-12328
olate	-12329
yssey	-12330
দায়ে	-12331
্মোতে	-12332
▁epid	-12333
▁newt	-12334
▁nutr	-12335
▁trap	-12336
▁অদ্ভ	-12337
▁নেশা	-12338
▁পারফ	-12339
bremer	-12340
enstad	-12341
imally	-12342
onents	-12343
ongoro	-12344
িস্কোপ	-12345
ীনগুলি	-12346
্পেরনি	-12347
▁advis	-12348
▁cella	-12349
▁codes	-12350
▁multi	-12351
▁repet	-12352
▁rescu	-12353
▁revel	-12354
▁sakis	-12355
▁scale	-12356
▁scorp	-12357
▁scott	-12358
▁scrib	-12359
▁shops	-12360
▁shore	-12361
▁sirip	-12362
▁skype	-12363
▁sloth	-12364
▁soles	-12365
▁solic	-12366
▁sound	-12367
▁stays	-12368
▁swiss	-12369
▁tenor	-12370
▁theft	-12371
▁thick	-12372
▁tilts	-12373
▁towns	-12374
▁trill	-12375
▁truex	-12376
▁trust	-12377
▁truth	-12378
▁unhur	-12379
▁unman	-12380
▁vanda	-12381
▁vents	-12382
▁vocab	-12383
▁waged	-12384
▁waver	-12385
▁worse	-12386
▁yasov	-12387
▁অগ্নি	-12388
▁অতীতে	-12389
▁অনশনও	-12390
▁অনুভূ	-12391
▁অন্তঃ	-12392
▁অপরটি	-12393
▁অবরোধ	-12394
▁অবাধে	-12395
▁অ্যাজ	-12396
▁আইতুট	-12397
▁আন্তঃ	-12398
▁আমদান	-12399
but	-12400
daw	-12401
iad	-12402
mie	-12403
see	-12404
utc	-12405
wid	-12406
ংশে	-12407
▁"'	-12408
cesa	-12409
dawn	-12410
gore	-12411
gree	-12412
iras	-12413
part	-12414
utan	-12415
uter	-12416
ক্ষু	-12417
দলটি	-12418
▁nur	-12419
▁oce	-12420
▁নিছ	-12421
ading	-12422
mieux	-12423
takes	-12424
verly	-12425
width	-12426
ভঙ্গি	-12427
িংহাম	-12428
িয়াত	-12429
▁Days	-12430
▁cand	-12431
▁legs	-12432
▁stad	-12433
▁unem	-12434
▁zimb	-12435
▁আইনে	-12436
▁ক্রো	-12437
▁খুজে	-12438
▁দূর্	-12439
▁নিউট	-12440
▁বাঁধ	-12441
▁মাটি	-12442
▁শত্র	-12443
asterp	-12444
degree	-12445
ানিকার	-12446
াবাসের	-12447
্রেডিট	-12448
▁banqu	-12449
▁flies	-12450
▁gurus	-12451
▁iliad	-12452
▁irrit	-12453
▁squad	-12454
▁tenth	-12455
▁unemp	-12456
▁আয়ার	-12457
▁আরিয়	-12458
▁আরোহন	-12459
▁আলজের	-12460
▁আসছেন	-12461
▁আসন্ন	-12462
▁ইটালো	-12463
▁উপকার	-12464
▁উপড়ে	-12465
▁উপলব্	-12466
▁একজনও	-12467
▁একটিই	-12468
▁এক্সপ	-12469
▁এজন্য	-12470
▁এভাবে	-12471
▁ওভেচক	-12472
▁ওয়ার	-12473
▁ওয়েড	-12474
▁কনভার	-12475
▁করায়	-12476
▁করিতে	-12477
▁কলেজে	-12478
▁কাচের	-12479
▁কানুন	-12480
▁কেসটি	-12481
▁কেসেল	-12482
▁কোভিড	-12483
▁কোর্স	-12484
▁ক্রোম	-12485
▁ক্লাই	-12486
▁খামেন	-12487
▁খোঁজা	-12488
▁গড়ার	-12489
▁গতিবে	-12490
▁গরমের	-12491
▁গর্ডন	-12492
▁গাড়ী	-12493
▁গুপ্ত	-12494
▁গেয়ে	-12495
▁গোমুল	-12496
▁গ্রিড	-12497
▁গ্রেট	-12498
▁ঘর্ষণ	-12499
ams	-12500
dam	-12501
fam	-12502
iao	-12503
sea	-12504
umb	-12505
থরা	-12506
রাজ	-12507
েটস	-12508
োসো	-12509
▁ফি	-12510
ithu	-12511
ords	-12512
seas	-12513
াকির	-12514
োমতে	-12515
োমরফ	-12516
▁ald	-12517
▁oah	-12518
▁অনধ	-12519
▁জগৎ	-12520
▁তাজ	-12521
▁তাৎ	-12522
▁যাক	-12523
▁যাব	-12524
famil	-12525
uting	-12526
নীভূত	-12527
াবলীর	-12528
ামকরা	-12529
েরোসো	-12530
▁atri	-12531
▁dish	-12532
▁dumb	-12533
▁fung	-12534
▁jagr	-12535
▁oahu	-12536
▁osak	-12537
▁reap	-12538
lement	-12539
থরামের	-12540
মনোমরফ	-12541
মিরেটস	-12542
রাজধান	-12543
ান্টার	-12544
াসাকির	-12545
▁aldwy	-12546
▁beams	-12547
▁chiao	-12548
▁intra	-12549
▁lithu	-12550
▁osaka	-12551
▁spend	-12552
▁thats	-12553
▁অক্ষম	-12554
▁অনায়	-12555
▁উল্টে	-12556
▁এটাকে	-12557
▁ঘুমের	-12558
▁ঘোড়া	-12559
▁চকচকে	-12560
▁চটচটে	-12561
▁চালিক	-12562
▁চিকেন	-12563
▁চিন্ত	-12564
▁ছিপির	-12565
▁ছোটেন	-12566
▁জগৎের	-12567
▁জন্যও	-12568
▁জন্যে	-12569
▁জানেন	-12570
▁জামিন	-12571
▁জিঙ্গ	-12572
▁জিম্ব	-12573
▁জেএএস	-12574
▁ট্রাক	-12575
▁ট্রেড	-12576
▁ডাকাত	-12577
▁ডিভিড	-12578
▁ডোমিং	-12579
▁ড্রুক	-12580
▁তাড়ন	-12581
▁তিব্ব	-12582
▁তুলবে	-12583
▁তেমনি	-12584
▁থাকাব	-12585
▁দানলা	-12586
▁দুজনে	-12587
▁দূরের	-12588
▁দৃষ্ট	-12589
▁দেবেন	-12590
▁দেশেই	-12591
▁দৈর্ঘ	-12592
▁দোলান	-12593
▁ধর্মে	-12594
▁ধার্য	-12595
▁ধূমকে	-12596
▁নদীটি	-12597
▁নয়জন	-12598
▁নাগাদ	-12599
chh	-12600
ifs	-12601
mip	-12602
ঘুর	-12603
ডরা	-12604
ডাচ	-12605
ুরে	-12606
▁ইহ	-12607
camp	-12608
char	-12609
okod	-12610
ucan	-12611
ঃসাহ	-12612
াধরা	-12613
্কান	-12614
▁jet	-12615
▁rar	-12616
▁rim	-12617
▁ইংল	-12618
▁গুর	-12619
▁নাও	-12620
▁নেপ	-12621
▁হতো	-12622
▁হৃদ	-12623
okoda	-12624
orate	-12625
কগুলি	-12626
জনেরও	-12627
ট্টাল	-12628
প্রের	-12629
িংস্র	-12630
▁cave	-12631
▁lock	-12632
▁আক্ষ	-12633
▁আর্ট	-12634
▁পারত	-12635
▁পারব	-12636
▁পারো	-12637
▁বর্ষ	-12638
▁লেখক	-12639
▁হাউজ	-12640
charge	-12641
igated	-12642
ক্ষায়	-12643
ঞ্জাবী	-12644
ডজনেরও	-12645
াকারীর	-12646
িনিডরা	-12647
ুরগুলি	-12648
▁1940,	-12649
▁asfaw	-12650
▁lockw	-12651
▁occur	-12652
▁ইংলিশ	-12653
▁ইহাকে	-12654
▁উইঘুর	-12655
▁গুরমত	-12656
▁জনেরও	-12657
▁নাচের	-12658
▁নাট্য	-12659
▁নালীর	-12660
▁নিন্দ	-12661
▁নির্দ	-12662
▁নেপোল	-12663
▁নেবার	-12664
▁নৌবহর	-12665
▁পড়েঃ	-12666
▁পত্তর	-12667
▁পরগাছ	-12668
▁পর্বত	-12669
▁পাতার	-12670
▁পাম্প	-12671
▁পারলে	-12672
▁পার্ব	-12673
▁পাশের	-12674
▁পিত্ত	-12675
▁পেট্র	-12676
▁পেপার	-12677
▁প্যাস	-12678
▁প্রবহ	-12679
▁প্লাজ	-12680
▁ফারাও	-12681
▁ফিউশন	-12682
▁ফিলাম	-12683
▁ফুয়ে	-12684
▁ফেনটন	-12685
▁ফেলিস	-12686
▁ফ্যান	-12687
▁ফ্রেম	-12688
▁বন্যা	-12689
▁বয়সে	-12690
▁বলতেন	-12691
▁বার্ড	-12692
▁বিবরণ	-12693
▁বিলাস	-12694
▁বিশ্র	-12695
▁বেজিং	-12696
▁বেসের	-12697
▁বোমার	-12698
▁বৌদ্ধ	-12699
িংগ	-12700
▁va	-12701
▁লক	-12702
▁লু	-12703
hone	-12704
icus	-12705
iful	-12706
oung	-12707
pher	-12708
tave	-12709
গীয়	-12710
তারা	-12711
দীয়	-12712
লীয়	-12713
ুরিত	-12714
ূক্ত	-12715
▁ads	-12716
▁pum	-12717
▁sul	-12718
▁vil	-12719
▁ঘরে	-12720
▁জন্	-12721
▁ফাঁ	-12722
▁শিব	-12723
bated	-12724
glass	-12725
ounce	-12726
tavee	-12727
zoung	-12728
ারাতি	-12729
িংগাপ	-12730
ুভূমি	-12731
▁vacc	-12732
▁আর্ত	-12733
▁ওবান	-12734
▁দামী	-12735
▁ফাঁদ	-12736
▁ফুটো	-12737
▁লকউড	-12738
▁লুফথ	-12739
▁সুখী	-12740
ailand	-12741
য়ারের	-12742
যুগীয়	-12743
িলোপোল	-12744
োরিয়া	-12745
▁1951,	-12746
▁dilok	-12747
▁inher	-12748
▁mario	-12749
▁pumps	-12750
▁vilni	-12751
▁অপরকে	-12752
▁করাকে	-12753
▁করেছন	-12754
▁ক্যাড	-12755
▁জন্মে	-12756
▁ব্যবধ	-12757
▁ব্রাদ	-12758
▁ভাঙতে	-12759
▁ভাবেই	-12760
▁ভার্ন	-12761
▁ভেন্ট	-12762
▁ভ্যান	-12763
▁মজুরি	-12764
▁মতভেদ	-12765
▁মতামত	-12766
▁মরফিন	-12767
▁মাটির	-12768
▁মানবহ	-12769
▁মানান	-12770
▁মারটা	-12771
▁মিলিম	-12772
▁মুনাফ	-12773
▁ম্যাল	-12774
▁যাঁকে	-12775
▁যাবার	-12776
▁রম্নি	-12777
▁রশ্মি	-12778
▁রাখছে	-12779
▁রাখাই	-12780
▁রোগটি	-12781
▁লাভার	-12782
▁লিখিত	-12783
▁লেখাই	-12784
▁শিবের	-12785
▁শীঘ্র	-12786
▁শুনান	-12787
▁সঙ্কু	-12788
▁সঙ্গী	-12789
▁সর্বম	-12790
▁সহজাত	-12791
▁সহযোগ	-12792
▁সাক্ষ	-12793
▁সান্ন	-12794
▁সাম্য	-12795
▁সিলার	-12796
▁সেটিই	-12797
▁সেসকল	-12798
▁সোনার	-12799
করে	-12800
ঘরে	-12801
বাখ	-12802
বাব	-12803
ভেল	-12804
েলস	-12805
োনে	-12806
hour	-12807
rast	-12808
this	-12809
এইচএ	-12810
ুজের	-12811
েলাস	-12812
োপরি	-12813
্ধ্য	-12814
▁480	-12815
▁90(	-12816
▁utc	-12817
▁ভরে	-12818
▁রেল	-12819
▁শেল	-12820
▁সেল	-12821
alone	-12822
atter	-12823
simps	-12824
swana	-12825
জীবিত	-12826
দুঘরে	-12827
বহনের	-12828
▁beak	-12829
▁hide	-12830
▁কন্ট	-12831
▁ফিতে	-12832
▁বাবা	-12833
porate	-12834
িডেন্ট	-12835
িভুজের	-12836
্সবারি	-12837
▁2007,	-12838
▁alter	-12839
▁judic	-12840
▁mecca	-12841
▁presc	-12842
▁youth	-12843
▁আসবাব	-12844
▁ওএইচএ	-12845
▁খুরের	-12846
▁চলছিল	-12847
▁মাসাই	-12848
▁সিরকু	-12849
▁সৌখিন	-12850
▁সৌভাগ	-12851
▁স্টিভ	-12852
▁স্টেট	-12853
▁স্টোফ	-12854
▁স্যান	-12855
▁হত্যা	-12856
▁হয়েও	-12857
▁হলবর্	-12858
▁হাইপো	-12859
▁হানার	-12860
▁হাসিঠ	-12861
▁হুবহু	-12862
▁হুসার	-12863
▁হেকলা	-12864
▁হেক্ট	-12865
▁হ্যাঁ	-12866
alanges	-12867
anation	-12868
angular	-12869
apatero	-12870
aration	-12871
aristic	-12872
concept	-12873
dicated	-12874
emption	-12875
enished	-12876
ernicus	-12877
ferable	-12878
forward	-12879
glasses	-12880
guarded	-12881
ialects	-12882
ilation	-12883
illance	-12884
imatize	-12885
iminary	-12886
ingrich	-12887
iovanni	-12888
ipelago	-12889
isition	-12890
ittered	-12891
itutaki	-12892
izabeth	-12893
lection	-12894
morphic	-12895
ocating	-12896
onomous	-12897
oration	-12898
osaurid	-12899
ndr	-12900
slr	-12901
vak	-12902
জনী	-12903
পটে	-12904
৩০০	-12905
▁৮০	-12906
geon	-12907
illa	-12908
illo	-12909
mock	-12910
olak	-12911
test	-12912
will	-12913
াত্ন	-12914
োটের	-12915
্রমে	-12916
▁500	-12917
▁hek	-12918
▁kay	-12919
▁oak	-12920
▁sev	-12921
▁sex	-12922
▁আউট	-12923
▁ছাদ	-12924
▁দেং	-12925
▁দেহ	-12926
ciate	-12927
dives	-12928
lovak	-12929
opher	-12930
rillo	-12931
ডামের	-12932
ষ্ঠার	-12933
সেলাড	-12934
্যাপল	-12935
▁1600	-12936
▁abun	-12937
▁atop	-12938
▁dslr	-12939
▁hect	-12940
▁nest	-12941
▁proh	-12942
▁seas	-12943
▁চেকপ	-12944
▁সংবহ	-12945
ndrome	-12946
renown	-12947
ungeon	-12948
অ্যাপল	-12949
নসেকার	-12950
বিক্রে	-12951
াকোটের	-12952
াত্নকে	-12953
▁greed	-12954
▁hekla	-12955
▁manar	-12956
▁miami	-12957
▁races	-12958
▁scuba	-12959
▁অকপটে	-12960
▁মুশাস	-12961
lovakia	-12962
ostasis	-12963
ouvalos	-12964
reciate	-12965
reprene	-12966
requent	-12967
running	-12968
simpson	-12969
spanish	-12970
stances	-12971
ternate	-12972
tornado	-12973
turning	-12974
ufthans	-12975
ureland	-12976
venting	-12977
vergent	-12978
winning	-12979
ypother	-12980
ঃসাহসিক	-12981
ওয়ারের	-12982
ওয়ার্ড	-12983
কমিশনার	-12984
কারভেদে	-12985
কারাবাখ	-12986
কার্যের	-12987
কুভারের	-12988
ক্ষণশীল	-12989
ক্ষুদ্র	-12990
গাওয়াং	-12991
জিনিসের	-12992
ঞ্জেলাস	-12993
ণুগুলির	-12994
ণ্ডলীয়	-12995
তির্বিদ	-12996
তুকালীন	-12997
ত্যাকার	-12998
দেবীদের	-12999
600	-13000
উদ্	-13001
বিঘ	-13002
রোগ	-13003
িটা	-13004
ুনো	-13005
▁22	-13006
▁27	-13007
idde	-13008
জেআর	-13009
তম্য	-13010
ারণা	-13011
্যুব	-13012
▁10,	-13013
▁CCT	-13014
▁aun	-13015
▁dry	-13016
▁jas	-13017
▁jou	-13018
▁jun	-13019
▁lie	-13020
▁আনা	-13021
▁গুড	-13022
▁টুই	-13023
▁সংগ	-13024
uders	-13025
vidde	-13026
ড়িটা	-13027
ডেরার	-13028
ন্টোর	-13029
বিঘ্ন	-13030
রোগাল	-13031
হার্ভ	-13032
ারণ্য	-13033
ুমুখী	-13034
▁CCTV	-13035
▁conc	-13036
▁gore	-13037
▁thun	-13038
▁অক্স	-13039
▁টুইন	-13040
▁বুনো	-13041
▁বোবা	-13042
▁রাজি	-13043
▁স্লথ	-13044
▁হাউস	-13045
উদ্দীপ	-13046
রন্টোর	-13047
্যুব্ল	-13048
▁1,600	-13049
▁ligur	-13050
▁meals	-13051
▁qatar	-13052
▁ভিক্ষ	-13053
▁মিছিল	-13054
▁লিঙ্ক	-13055
▁সংক্ষ	-13056
▁সংগীত	-13057
ausibly	-13058
ধ্যসাগর	-13059
নাতনিরা	-13060
ন্তানের	-13061
পশ্চিমে	-13062
পাতগুলি	-13063
প্তাহিক	-13064
ফানেলের	-13065
ফিস্টিক	-13066
বর্তীতা	-13067
বিভাগের	-13068
বেশকারী	-13069
মাত্রার	-13070
মান্ডের	-13071
মিরালরা	-13072
র্শকদের	-13073
ষ্ঠরূপে	-13074
সাধারণত	-13075
স্তোঁরা	-13076
স্থানের	-13077
াইমজোনে	-13078
াদিয়ান	-13079
ায়ীদের	-13080
ারিয়ান	-13081
ার্সনের	-13082
ালালদের	-13083
ালিয়ার	-13084
াহিত্যে	-13085
িপিলিকা	-13086
িয়ানোর	-13087
িসৌরিতে	-13088
ুজিয়ান	-13089
েমিয়াহ	-13090
োকোডায়	-13091
োটক্সিন	-13092
োটারুয়	-13093
্ধ্যভোজ	-13094
্যান্ডা	-13095
্রমোদের	-13096
‍্যান্ড	-13097
▁22,500	-13098
▁afterm	-13099
কাজ	-13100
▁ঋণ	-13101
▁ওক	-13102
▁ওভ	-13103
ains	-13104
চালক	-13105
মাংশ	-13106
লেশন	-13107
াতোল	-13108
িভেন	-13109
োনাম	-13110
▁gri	-13111
▁আবু	-13112
▁উপস	-13113
▁কলন	-13114
▁ঘাস	-13115
ortic	-13116
ঙ্গুল	-13117
ফিয়া	-13118
ময়তা	-13119
র্ডার	-13120
স্থলে	-13121
স্থিত	-13122
▁(1.5	-13123
▁mort	-13124
▁sore	-13125
▁vern	-13126
▁অবতল	-13127
▁ইনকা	-13128
▁উপাস	-13129
▁ওভেক	-13130
▁কার্	-13131
▁মন্ত	-13132
▁৩০০০	-13133
ileges	-13134
urious	-13135
বর্ডার	-13136
িভেনশন	-13137
্যান্স	-13138
▁flood	-13139
▁pejor	-13140
▁plans	-13141
▁unión	-13142
▁বীমার	-13143
▁বেকার	-13144
▁মন্তব	-13145
▁মিশনে	-13146
▁ল্যাপ	-13147
▁হাইকে	-13148
াংবিধান	-13149
াতোল্লা	-13150
ায়ালিক	-13151
▁aliens	-13152
▁alpine	-13153
▁amidst	-13154
▁ancest	-13155
▁anyone	-13156
▁appeal	-13157
▁arawak	-13158
▁arrows	-13159
▁ascent	-13160
▁assist	-13161
▁baltic	-13162
▁bellow	-13163
▁bhutan	-13164
▁biking	-13165
▁brevis	-13166
▁brings	-13167
▁cancel	-13168
▁casual	-13169
▁centim	-13170
▁circul	-13171
▁coarse	-13172
▁coffin	-13173
▁coined	-13174
▁collap	-13175
▁commod	-13176
▁comply	-13177
▁costly	-13178
▁credit	-13179
▁darwin	-13180
▁decide	-13181
▁deeply	-13182
▁delays	-13183
▁deluxe	-13184
▁denser	-13185
▁discom	-13186
▁discon	-13187
▁diving	-13188
▁dormit	-13189
▁dracon	-13190
▁edward	-13191
▁eleven	-13192
▁employ	-13193
▁excell	-13194
▁expert	-13195
▁factor	-13196
▁fewest	-13197
▁forced	-13198
▁fought	-13199
খলা	-13200
বিএ	-13201
রোর	-13202
লোর	-13203
শোর	-13204
ieve	-13205
ours	-13206
ঙ্কে	-13207
তাটি	-13208
নীটি	-13209
াজিক	-13210
ুলতা	-13211
▁2.8	-13212
▁gdp	-13213
▁hab	-13214
▁haz	-13215
▁jel	-13216
▁tah	-13217
▁আমো	-13218
▁কবি	-13219
▁জোর	-13220
▁ডিভ	-13221
▁মোর	-13222
এনবিএ	-13223
ক্ষবি	-13224
▁2015	-13225
▁brid	-13226
▁dele	-13227
▁deut	-13228
▁exch	-13229
▁plat	-13230
▁prox	-13231
▁এইসব	-13232
▁নেতি	-13233
▁সমাজ	-13234
arking	-13235
avated	-13236
rorail	-13237
মচিহ্ন	-13238
াদ্যের	-13239
োরগুলি	-13240
্যালঘু	-13241
▁folks	-13242
▁looks	-13243
▁overf	-13244
▁recip	-13245
▁volga	-13246
▁আমোদে	-13247
▁কিশোর	-13248
▁চ্যান	-13249
▁জ্যাম	-13250
▁ডিভাই	-13251
আরিয়াস	-13252
▁george	-13253
▁glazed	-13254
▁gloomy	-13255
▁goodby	-13256
▁grande	-13257
▁gurmat	-13258
▁habits	-13259
▁heated	-13260
▁herbiv	-13261
▁hortic	-13262
▁housed	-13263
▁houses	-13264
▁hunmin	-13265
▁hybrid	-13266
▁immune	-13267
▁intend	-13268
▁intent	-13269
▁janiss	-13270
▁jellyf	-13271
▁judged	-13272
▁jungle	-13273
▁konami	-13274
▁ladder	-13275
▁latvia	-13276
▁leaked	-13277
▁levels	-13278
▁lobate	-13279
▁lowest	-13280
▁mathem	-13281
▁matter	-13282
▁memory	-13283
▁metall	-13284
▁metals	-13285
▁methan	-13286
▁microw	-13287
▁minist	-13288
▁museum	-13289
▁noveme	-13290
▁oldest	-13291
▁orland	-13292
▁partly	-13293
▁planet	-13294
▁postal	-13295
▁potent	-13296
▁profic	-13297
▁prohib	-13298
▁publis	-13299
pos	-13300
dall	-13301
inos	-13302
inus	-13303
mble	-13304
uity	-13305
uses	-13306
uset	-13307
কাকে	-13308
হিরো	-13309
িজেক	-13310
▁UTC	-13311
▁hus	-13312
▁uns	-13313
▁আঁক	-13314
▁বোট	-13315
▁২৪০	-13316
allit	-13317
anity	-13318
arman	-13319
icity	-13320
pical	-13321
sight	-13322
কারের	-13323
ড়াটি	-13324
সেডার	-13325
▁gall	-13326
▁krom	-13327
▁wall	-13328
▁কথিত	-13329
▁দেখন	-13330
▁পাকে	-13331
▁রেগে	-13332
agoras	-13333
allist	-13334
dallus	-13335
usetts	-13336
মিংপুল	-13337
্সগুলি	-13338
▁aided	-13339
▁barça	-13340
▁pecul	-13341
▁stake	-13342
▁wheel	-13343
▁জানলে	-13344
▁তারটি	-13345
▁পেড্র	-13346
▁ভার্দ	-13347
▁সিঙ্ক	-13348
gvasson	-13349
typical	-13350
গুরিয়া	-13351
াকর্মীর	-13352
▁acuity	-13353
▁alight	-13354
▁answer	-13355
▁causes	-13356
▁piracy	-13357
▁punctu	-13358
▁quoted	-13359
▁recomm	-13360
▁reiter	-13361
▁remote	-13362
▁remove	-13363
▁rental	-13364
▁richer	-13365
▁riches	-13366
▁rigged	-13367
▁rivers	-13368
▁robbed	-13369
▁rogers	-13370
▁rounds	-13371
▁sacrif	-13372
▁safina	-13373
▁santia	-13374
▁sasebo	-13375
▁scatte	-13376
▁script	-13377
▁sector	-13378
▁secure	-13379
▁sharip	-13380
▁shower	-13381
▁singer	-13382
▁slowly	-13383
▁snakes	-13384
▁sought	-13385
▁southe	-13386
▁sovere	-13387
▁speeds	-13388
▁strain	-13389
▁strang	-13390
▁taizic	-13391
▁tariff	-13392
▁templo	-13393
▁territ	-13394
▁tested	-13395
▁thanks	-13396
▁theore	-13397
▁throne	-13398
▁tipper	-13399
"")	-13400
উনে	-13401
গনে	-13402
নেম	-13403
পথে	-13404
শনে	-13405
▁টম	-13406
▁টা	-13407
▁টু	-13408
ager	-13409
azaw	-13410
emis	-13411
some	-13412
িজটি	-13413
িডোর	-13414
িন্ড	-13415
েশনে	-13416
্ডার	-13417
▁plc	-13418
▁shr	-13419
▁আনে	-13420
▁গদি	-13421
azawa	-13422
giore	-13423
tress	-13424
urial	-13425
wered	-13426
ক্যাড	-13427
খ্যান	-13428
টাউনে	-13429
ডারেল	-13430
শনেসি	-13431
ষ্টার	-13432
▁(1/5	-13433
▁aper	-13434
▁ঘুমা	-13435
▁টানে	-13436
▁বিকল	-13437
▁শোনা	-13438
▁হরকস	-13439
unkirk	-13440
গনেটিং	-13441
টিয়ের	-13442
ষ্টায়	-13443
্যানার	-13444
্যানিস	-13445
্যানের	-13446
▁fatal	-13447
▁tight	-13448
▁ক্রাভ	-13449
▁ট্যান	-13450
▁ঢুকতে	-13451
▁দারুণ	-13452
▁নিক্ষ	-13453
▁ফলকটি	-13454
▁হ্যান	-13455
aggiore	-13456
anazawa	-13457
ullivan	-13458
ওয়ানের	-13459
পন্থীরা	-13460
েনটাউনে	-13461
্যুয়াল	-13462
▁(300,9	-13463
▁balkan	-13464
▁enable	-13465
▁traded	-13466
▁transm	-13467
▁uproot	-13468
▁uptown	-13469
▁upward	-13470
▁useful	-13471
▁viable	-13472
▁victor	-13473
▁viewed	-13474
▁vision	-13475
▁wanted	-13476
▁weighs	-13477
▁worlds	-13478
▁wouldn	-13479
▁অক্সিজ	-13480
▁অগাস্ট	-13481
▁অগ্নিস	-13482
▁অজান্ত	-13483
▁অট্টাল	-13484
▁অন্যের	-13485
▁অপরাধী	-13486
▁অবিহিত	-13487
▁অভিশাপ	-13488
▁অর্জনে	-13489
▁অ্যালড	-13490
▁আকাশের	-13491
▁আচরণকে	-13492
▁আদিবাস	-13493
▁আপনারা	-13494
▁আবিষ্ক	-13495
▁আমদানি	-13496
▁আয়ত্ত	-13497
▁আর্থার	-13498
▁আশ্রয়	-13499
ংলা	-13500
কলা	-13501
খুন	-13502
চলা	-13503
bour	-13504
inci	-13505
unci	-13506
wide	-13507
your	-13508
দিনই	-13509
ব্যে	-13510
ুনটি	-13511
ুনার	-13512
োমির	-13513
্টুন	-13514
▁গলা	-13515
▁নকল	-13516
▁সুন	-13517
iated	-13518
rough	-13519
state	-13520
চলাচল	-13521
জৌংলা	-13522
দেখুন	-13523
ধ্যাক	-13524
যাচিত	-13525
র্ডিক	-13526
ল্পিত	-13527
শীলিত	-13528
্যাগস	-13529
▁1.1.	-13530
▁গোপন	-13531
▁বিজে	-13532
▁ভাঙে	-13533
▁শ্রম	-13534
driven	-13535
princi	-13536
ায়নের	-13537
▁clubs	-13538
▁emper	-13539
▁spiky	-13540
▁uncom	-13541
▁কতবার	-13542
▁কিলোম	-13543
▁খৃষ্ট	-13544
▁খোলার	-13545
ruments	-13546
unately	-13547
াইফুনটি	-13548
▁archae	-13549
▁extent	-13550
▁hamper	-13551
▁mexico	-13552
▁rookie	-13553
▁অনুদান	-13554
▁অযাচিত	-13555
▁আ্যপের	-13556
▁আ্যসোস	-13557
▁ইমেজিং	-13558
▁ইরানের	-13559
▁উইন্ডো	-13560
▁উড়ানো	-13561
▁উদ্বোধ	-13562
▁উভয়ের	-13563
▁একটিতে	-13564
▁একদিনে	-13565
▁একেশ্ব	-13566
▁এপ্রিল	-13567
▁এসেছেন	-13568
▁ওয়েবে	-13569
▁কমিয়ে	-13570
▁করিয়ে	-13571
▁কাউন্স	-13572
▁কারণেই	-13573
▁কারাতে	-13574
▁কারীরা	-13575
▁কার্গো	-13576
▁কাহিনী	-13577
▁কিউবান	-13578
▁কিউবার	-13579
▁কিনারে	-13580
▁কোর্সে	-13581
▁ক্রমশই	-13582
▁ক্রীড়	-13583
▁খুঁড়ে	-13584
▁খ্যাতি	-13585
▁গাছহীন	-13586
▁গ্রহের	-13587
▁গ্রাহক	-13588
▁গ্রিলি	-13589
▁গ্রেনে	-13590
▁ঘোষণার	-13591
▁চালায়	-13592
▁চূড়ার	-13593
▁ছাড়ের	-13594
▁ছায়াছ	-13595
▁ছিঁড়ে	-13596
▁ছুটিতে	-13597
▁ছোঁয়া	-13598
▁জটিলতা	-13599
oke	-13600
ৈরি	-13601
geof	-13602
ডলির	-13603
হপার	-13604
াকিং	-13605
িফ্ট	-13606
িভিল	-13607
▁783	-13608
▁hiv	-13609
▁lee	-13610
▁lev	-13611
▁সোল	-13612
derst	-13613
essed	-13614
চার্ড	-13615
ন্তরে	-13616
ভাগকে	-13617
▁bart	-13618
▁core	-13619
▁deal	-13620
▁tube	-13621
▁wors	-13622
▁আসুন	-13623
▁উঠবে	-13624
▁এটিই	-13625
▁এটিও	-13626
▁ঝাংজ	-13627
▁নামা	-13628
▁বনাম	-13629
▁মারো	-13630
▁যন্ত	-13631
cement	-13632
common	-13633
ection	-13634
enment	-13635
geofil	-13636
mented	-13637
▁1956,	-13638
▁1994,	-13639
▁783,5	-13640
▁aless	-13641
▁croat	-13642
▁euros	-13643
▁hooke	-13644
▁makis	-13645
▁worst	-13646
▁অব্যা	-13647
▁এটিতে	-13648
▁কাতার	-13649
▁রিফ্ট	-13650
▁সিভিল	-13651
▁সোলের	-13652
essions	-13653
ম্যাচের	-13654
রকমভাবে	-13655
▁levied	-13656
▁petros	-13657
▁polish	-13658
▁smooth	-13659
▁অনুভবন	-13660
▁জনগণকে	-13661
▁জানাবে	-13662
▁ঝাবড্র	-13663
▁ঝাবদ্র	-13664
▁টাইপের	-13665
▁ঠকানোর	-13666
▁ডিস্কে	-13667
▁তাজমহল	-13668
▁তারপুল	-13669
▁তৈরিতে	-13670
▁থাকলেন	-13671
▁দানলাও	-13672
▁দারভিস	-13673
▁দিচ্ছে	-13674
▁দুর্ঘট	-13675
▁দেখেছে	-13676
▁দেশটির	-13677
▁ধর্মকে	-13678
▁নরওয়ে	-13679
▁নর্ডিক	-13680
▁নাড়তে	-13681
▁নামটির	-13682
▁নিউট্র	-13683
▁নিদর্শ	-13684
▁নিস্তব	-13685
▁নেভাডা	-13686
▁পঞ্চাশ	-13687
▁পঞ্জাব	-13688
▁পড়ছিল	-13689
▁পথগুলি	-13690
▁পরাজিত	-13691
▁পরিক্ষ	-13692
▁পরিচয়	-13693
▁পরিপূর	-13694
▁পরিমান	-13695
▁পলায়ন	-13696
▁পাখিটি	-13697
▁পাঠায়	-13698
▁পাত্তা	-13699
ছোট	-13700
রিচ	-13701
রিশ	-13702
▁৫৪	-13703
icky	-13704
nies	-13705
নাইট	-13706
বারগ	-13707
র্তি	-13708
ুবার	-13709
্রেই	-13710
▁cyc	-13711
▁vib	-13712
▁ডাই	-13713
▁ডেন	-13714
▁ডেল	-13715
iglia	-13716
বার্য	-13717
ামাইন	-13718
িনিকে	-13719
ীতিকে	-13720
োটোকে	-13721
▁coop	-13722
▁gunk	-13723
▁jard	-13724
▁lies	-13725
▁mant	-13726
▁recl	-13727
▁ব্রে	-13728
কভর্তি	-13729
ডারেশন	-13730
িনবারগ	-13731
িয়াগো	-13732
▁notor	-13733
▁sofia	-13734
▁treat	-13735
▁unpre	-13736
▁অভাবে	-13737
▁আইরিশ	-13738
▁ডিয়ে	-13739
▁ডেনিশ	-13740
▁ভিক্ট	-13741
▁সন্নি	-13742
▁সাথেই	-13743
▁সাথেও	-13744
ometown	-13745
ramewor	-13746
ক্ষেপের	-13747
প্রেডের	-13748
্রেইটার	-13749
▁cycads	-13750
▁desire	-13751
▁gripen	-13752
▁jardín	-13753
▁ranges	-13754
▁slopes	-13755
▁sticky	-13756
▁tribal	-13757
▁উপসর্গ	-13758
▁কিভাবে	-13759
▁ডাইভিং	-13760
▁ডেল্টা	-13761
▁দরকারি	-13762
▁পারছিল	-13763
▁পারমিট	-13764
▁পারস্প	-13765
▁পারায়	-13766
▁পৃষ্ঠা	-13767
▁পৃষ্ঠে	-13768
▁পেরেছে	-13769
▁প্রজন্	-13770
▁প্রদেশ	-13771
▁প্রশ্ব	-13772
▁প্রসার	-13773
▁প্রস্থ	-13774
▁প্রানী	-13775
▁ফরাসির	-13776
▁ফেয়ার	-13777
▁বনাঞ্চ	-13778
▁বয়সেই	-13779
▁বরাদ্ধ	-13780
▁বসিয়ে	-13781
▁বায়ুর	-13782
▁বিচ্ছু	-13783
▁বিজেতা	-13784
▁বিবরণী	-13785
▁বিশ্বস	-13786
▁বুকারে	-13787
▁বুদ্ধি	-13788
▁বৈধতার	-13789
▁ভাইরাস	-13790
▁ভাঙচুর	-13791
▁ভীতিকে	-13792
▁ভূখণ্ড	-13793
▁মন্ত্র	-13794
▁মর্টগে	-13795
▁মাইলের	-13796
▁মাউন্ট	-13797
▁মাল্টি	-13798
▁মিথ্যা	-13799
map	-13800
্লু	-13801
apes	-13802
aria	-13803
তিলা	-13804
বলেট	-13805
্সের	-13806
্সেল	-13807
▁(29	-13808
▁gap	-13809
▁কৃষ	-13810
▁৭৫৫	-13811
antom	-13812
apart	-13813
endar	-13814
ender	-13815
ousin	-13816
ousis	-13817
strom	-13818
ulous	-13819
urous	-13820
গুলোও	-13821
টগুলো	-13822
তিলাভ	-13823
নকারী	-13824
স্টোর	-13825
্লিনে	-13826
▁arab	-13827
▁pits	-13828
▁vaut	-13829
▁গড়ে	-13830
▁জানো	-13831
endant	-13832
ianity	-13833
গুলোয়	-13834
সুবিধা	-13835
্লুজার	-13836
▁(291,	-13837
▁child	-13838
▁fares	-13839
▁poppy	-13840
▁জিমনে	-13841
▁ফেলবে	-13842
▁ব্রহ্	-13843
▁ভুক্ত	-13844
▁যক্ষা	-13845
▁সিম্ফ	-13846
▁স্থির	-13847
abulous	-13848
mapuche	-13849
শ্রেষ্ঠ	-13850
স্টোরিব	-13851
ারাগুলো	-13852
▁cousin	-13853
▁pushed	-13854
▁ticket	-13855
▁কৃষিতে	-13856
▁যায়না	-13857
▁রক্ষার	-13858
▁রাখছেন	-13859
▁রাজ্যে	-13860
▁রানিংক	-13861
▁রানিংট	-13862
▁রেইডের	-13863
▁রোগীরা	-13864
▁লাঠিটি	-13865
▁লুফথান	-13866
▁শনিবার	-13867
▁শিক্ষক	-13868
▁শিম্পা	-13869
▁শীতলতম	-13870
▁শোনাবে	-13871
▁শ্রেয়	-13872
▁সংঘঠিত	-13873
▁সংবহনত	-13874
▁সংসদের	-13875
▁সত্তার	-13876
▁সময়টি	-13877
▁সহকারী	-13878
▁সহযোগী	-13879
▁সাউন্ড	-13880
▁সান্তা	-13881
▁সাহসিক	-13882
▁সিংগাপ	-13883
▁সিটিতে	-13884
▁সূঁচের	-13885
▁সেইসকল	-13886
▁সেগুলি	-13887
▁সেতুটি	-13888
▁সেদিকে	-13889
▁সেভাবে	-13890
▁সৈকতের	-13891
▁স্ট্রী	-13892
▁স্থগিত	-13893
▁স্বামী	-13894
▁হচ্ছেন	-13895
▁হাইপান	-13896
▁হাউসের	-13897
▁হিংস্র	-13898
allation	-13899
udd	-13900
হেই	-13901
াপথ	-13902
িশে	-13903
▁৫০	-13904
aste	-13905
cium	-13906
oard	-13907
uded	-13908
ড়েই	-13909
ধমান	-13910
রত্ব	-13911
ৃতার	-13912
োকাব	-13913
▁468	-13914
▁aud	-13915
▁rum	-13916
▁তথা	-13917
▁শেই	-13918
"""""	-13919
arian	-13920
opted	-13921
uming	-13922
খারাপ	-13923
শ্লীল	-13924
াইকান	-13925
েমিশে	-13926
্যমান	-13927
▁fata	-13928
▁rudd	-13929
▁tomm	-13930
▁wife	-13931
▁কথাও	-13932
▁গল্ফ	-13933
▁থাকি	-13934
▁পাওন	-13935
▁মেঘা	-13936
▁লোকই	-13937
phants	-13938
াটাসের	-13939
▁aptly	-13940
▁audio	-13941
▁forum	-13942
▁manic	-13943
▁prete	-13944
▁reven	-13945
▁skill	-13946
▁tommy	-13947
▁কূটনী	-13948
▁পিঠের	-13949
▁মেয়র	-13950
▁মোকাব	-13951
calcium	-13952
legates	-13953
বর্ধমান	-13954
াধুলায়	-13955
োয়াকুই	-13956
▁aboard	-13957
▁cabool	-13958
▁cooked	-13959
▁namely	-13960
▁অনুগাম	-13961
▁অমরত্ব	-13962
▁অশ্লীল	-13963
▁উপলভ্য	-13964
▁কর্মসূ	-13965
▁কারণটি	-13966
▁জন্যেই	-13967
▁থাকায়	-13968
▁দম্পতি	-13969
▁পাওনলো	-13970
▁ব্যাথা	-13971
▁ভিড়ের	-13972
▁মোড়েই	-13973
▁সহজাতক	-13974
▁সুপ্লে	-13975
▁স্পেনে	-13976
bolizing	-13977
children	-13978
cinating	-13979
commonly	-13980
compared	-13981
independ	-13982
irmishes	-13983
isclosed	-13984
lopoulos	-13985
neapolis	-13986
ologized	-13987
position	-13988
ribution	-13989
ulations	-13990
usations	-13991
।"""""""	-13992
ঁকিপূর্ণ	-13993
অ্যাক্টর	-13994
আমেরিকান	-13995
ওয়াইল্ড	-13996
কুনিয়ান	-13997
ক্রিয়তা	-13998
ক্ষবিহীন	-13999
rsp	-14000
চাপ	-14001
টাও	-14002
টাহ	-14003
সংঘ	-14004
িওভ	-14005
িটর	-14006
েমে	-14007
▁১১	-14008
anso	-14009
name	-14010
reds	-14011
সেলা	-14012
াদনা	-14013
াবেশ	-14014
ালেও	-14015
১৯৬৫	-14016
▁afc	-14017
▁মিট	-14018
▁রকম	-14019
▁লঙ্	-14020
bound	-14021
level	-14022
rspca	-14023
খানেক	-14024
টবলের	-14025
াধারণ	-14026
▁goes	-14027
▁kong	-14028
▁pyth	-14029
▁rift	-14030
▁salt	-14031
▁user	-14032
▁আমলে	-14033
▁উটাহ	-14034
▁জাইর	-14035
▁ডিওভ	-14036
▁দূরত	-14037
ircled	-14038
াদগুলি	-14039
ার্গের	-14040
িকেলের	-14041
▁afcft	-14042
▁donor	-14043
▁tough	-14044
▁tuber	-14045
▁কবিতা	-14046
▁কিনলে	-14047
▁গিনিস	-14048
▁চৌদ্দ	-14049
▁নিশিপ	-14050
▁রাত্র	-14051
▁রিপাব	-14052
▁লঙ্ঘন	-14053
▁শিখরা	-14054
▁afcfta	-14055
▁blamed	-14056
▁intact	-14057
▁joseon	-14058
▁oxygen	-14059
▁transo	-14060
▁সমাবেশ	-14061
▁হেরফের	-14062
চাপযুক্ত	-14063
ঞ্চল্যকর	-14064
টিরিয়াম	-14065
ডাক্টররা	-14066
ত্বপূর্ণ	-14067
বিজ্ঞানী	-14068
ভিংস্টোন	-14069
মাত্রায়	-14070
মেয়াদের	-14071
শিষ্টাংশ	-14072
াটোলিয়া	-14073
াতোল্লাহ	-14074
ান্তগুলো	-14075
াফিলোপোল	-14076
ার্মিনাস	-14077
াশক্তিকে	-14078
িডনিসাইড	-14079
িয়ানোতে	-14080
িয়াপলিস	-14081
ির্দিষ্ট	-14082
িস্টোফার	-14083
েনজানোরই	-14084
্যালয়টি	-14085
্যোগমূলক	-14086
্রচিকিৎস	-14087
▁(1469-1	-14088
▁amended	-14089
▁amounts	-14090
▁answers	-14091
▁arizona	-14092
▁assists	-14093
▁bereave	-14094
▁botanic	-14095
▁brought	-14096
▁cafenet	-14097
▁cancell	-14098
▁captain	-14099
539	-14100
উভি	-14101
বীর	-14102
▁76	-14103
539)	-14104
agon	-14105
beth	-14106
dera	-14107
hang	-14108
ples	-14109
tual	-14110
চনার	-14111
নিটি	-14112
▁dub	-14113
▁আরব	-14114
▁ঘনি	-14115
▁চেত	-14116
▁ততো	-14117
▁তীর	-14118
▁নগা	-14119
▁মাঠ	-14120
licop	-14121
এখানে	-14122
র্শিত	-14123
সইউভি	-14124
িনিটি	-14125
▁chip	-14126
▁clay	-14127
▁gang	-14128
▁thai	-14129
▁করতো	-14130
▁দেশই	-14131
▁দেশী	-14132
▁সামল	-14133
celled	-14134
linear	-14135
plural	-14136
চিত্রে	-14137
▁leona	-14138
▁peers	-14139
▁troop	-14140
▁wagon	-14141
▁zhang	-14142
▁গ্রাম	-14143
▁ব্রডব	-14144
▁ভোরের	-14145
▁সপ্তম	-14146
ressure	-14147
virtual	-14148
অনুমোদন	-14149
▁awards	-14150
▁dublin	-14151
▁screen	-14152
▁আওয়াজ	-14153
▁আবরণের	-14154
▁এসইউভি	-14155
▁চেতনার	-14156
▁ততোধিক	-14157
▁পূর্বপ	-14158
▁মঙ্গোল	-14159
▁হাইড্র	-14160
isements	-14161
novative	-14162
pressure	-14163
চসার্ফিং	-14164
▁blooded	-14165
▁caldera	-14166
▁capture	-14167
▁chandra	-14168
▁choices	-14169
▁closure	-14170
▁coastal	-14171
▁coaster	-14172
▁comfort	-14173
▁comment	-14174
▁convers	-14175
▁copying	-14176
▁counted	-14177
▁danelaw	-14178
▁debated	-14179
▁decided	-14180
▁defense	-14181
▁derives	-14182
▁devices	-14183
▁disconn	-14184
▁doctors	-14185
▁drafted	-14186
▁dunkirk	-14187
▁edinbur	-14188
▁edition	-14189
▁ejected	-14190
▁elected	-14191
▁exactly	-14192
▁excited	-14193
▁existed	-14194
▁expense	-14195
▁exploit	-14196
▁factors	-14197
▁falcone	-14198
▁feeling	-14199
occ	-14200
জেট	-14201
ট্ম	-14202
গ্লো	-14203
ুরুপ	-14204
▁lug	-14205
▁spy	-14206
▁কোপ	-14207
▁রিভ	-14208
▁রেম	-14209
▁সবই	-14210
▁হোক	-14211
occur	-14212
rises	-14213
জুহাত	-14214
ণ্ডএল	-14215
ফানোর	-14216
ম্ব্র	-14217
র্মিত	-14218
াকর্ষ	-14219
ান্তর	-14220
িকেনে	-14221
▁hadn	-14222
▁load	-14223
▁ride	-14224
▁spam	-14225
▁wned	-14226
▁খোলা	-14227
▁লাগা	-14228
▁লেনজ	-14229
▁সৌরজ	-14230
akable	-14231
ঙ্কজেট	-14232
িওগ্লো	-14233
▁compl	-14234
▁আরওভি	-14235
▁আরামে	-14236
▁উদ্বি	-14237
▁এসেছি	-14238
▁কোপার	-14239
▁খেয়ে	-14240
▁জানবে	-14241
▁জানান	-14242
▁টিপার	-14243
▁নিপূন	-14244
ণ্ডএলোন	-14245
নির্মিত	-14246
বর্তনের	-14247
ম্ব্রিজ	-14248
্যযুক্ত	-14249
▁coales	-14250
▁confer	-14251
▁images	-14252
▁intest	-14253
▁regard	-14254
▁অজুহাত	-14255
▁অনুরুপ	-14256
▁আকৃতির	-14257
▁কারণের	-14258
▁ঢুকতেন	-14259
▁দুর্বো	-14260
▁পোস্টক	-14261
▁বিনষ্ট	-14262
▁বিনোদন	-14263
▁ম্যাচে	-14264
▁রেমন্ড	-14265
▁সমর্থক	-14266
▁সৌরজগত	-14267
▁স্ত্রী	-14268
▁স্বভাব	-14269
ট্মেন্টে	-14270
াগিওগ্লো	-14271
▁fifteen	-14272
▁finally	-14273
▁finance	-14274
▁fitness	-14275
▁folders	-14276
▁fonseca	-14277
▁forecas	-14278
▁formats	-14279
▁formula	-14280
▁galileo	-14281
▁goodbye	-14282
▁hamburg	-14283
▁hammock	-14284
▁handily	-14285
▁harbour	-14286
▁headley	-14287
▁helicop	-14288
▁hostile	-14289
▁infrast	-14290
▁interru	-14291
▁ireland	-14292
▁knuckle	-14293
▁legally	-14294
▁lengths	-14295
▁liberal	-14296
▁liguria	-14297
▁lucidly	-14298
▁luggage	-14299
make	-14300
nish	-14301
ন্সো	-14302
িরিং	-14303
▁16-	-14304
▁403	-14305
▁aks	-14306
▁rio	-14307
▁অতল	-14308
▁ফোম	-14309
গোরের	-14310
সম্মত	-14311
্যাদা	-14312
▁aksu	-14313
▁bile	-14314
▁file	-14315
▁maui	-14316
▁peru	-14317
▁role	-14318
▁আকর্	-14319
▁আগাম	-14320
▁ইস্ট	-14321
▁এমনই	-14322
▁জর্দ	-14323
▁ভেষজ	-14324
▁ভোটে	-14325
▁মিশে	-14326
angles	-14327
ধারীকে	-14328
▁2004-	-14329
▁cater	-14330
▁fifty	-14331
▁logic	-14332
▁overc	-14333
▁overl	-14334
▁roast	-14335
▁yours	-14336
▁আগদের	-14337
▁আগস্ট	-14338
▁আয়তন	-14339
▁কান্ট	-14340
▁মেইলব	-14341
largest	-14342
ominids	-14343
prevent	-14344
মর্যাদা	-14345
▁belgra	-14346
▁intake	-14347
▁jargon	-14348
▁logist	-14349
▁overlo	-14350
▁photon	-14351
▁pocket	-14352
▁stayed	-14353
▁wheels	-14354
▁আকর্ষক	-14355
▁এক্সপো	-14356
▁এনসেলে	-14357
▁দিয়েই	-14358
nishings	-14359
প্রায়শই	-14360
ুকধারীকে	-14361
▁canyone	-14362
▁command	-14363
▁malaria	-14364
▁mapping	-14365
▁marches	-14366
▁masterp	-14367
▁matches	-14368
▁matters	-14369
▁methods	-14370
▁minivan	-14371
▁monothe	-14372
▁monster	-14373
▁monthly	-14374
▁natives	-14375
▁neurolo	-14376
▁nicklas	-14377
▁nothing	-14378
▁notices	-14379
▁odyssey	-14380
▁officer	-14381
▁offline	-14382
▁operate	-14383
▁orbited	-14384
▁patient	-14385
▁pebbles	-14386
▁phantom	-14387
▁policem	-14388
▁portion	-14389
▁prescri	-14390
▁proceed	-14391
▁punjabi	-14392
▁pushing	-14393
▁rebuilt	-14394
▁reclaim	-14395
▁regions	-14396
▁remodel	-14397
▁renaiss	-14398
▁renting	-14399
িউল	-14400
sack	-14401
tace	-14402
োলাই	-14403
▁bab	-14404
▁kah	-14405
▁কমই	-14406
▁কেচ	-14407
▁টোল	-14408
▁ধসে	-14409
▁মোব	-14410
asset	-14411
stone	-14412
ফেনেট	-14413
বিজ্ঞ	-14414
মাচার	-14415
িউলের	-14416
▁acma	-14417
▁hajj	-14418
▁soon	-14419
▁wage	-14420
▁অবসর	-14421
▁গতির	-14422
▁ঘেরা	-14423
▁ধাপে	-14424
assess	-14425
berish	-14426
ক্ষতির	-14427
োর্ডিং	-14428
্যাণের	-14429
▁cover	-14430
▁encom	-14431
▁helps	-14432
▁hopes	-14433
▁indom	-14434
▁kahne	-14435
▁outer	-14436
▁outra	-14437
▁আয়ের	-14438
▁এথনিক	-14439
▁কিনতে	-14440
▁খাদ্য	-14441
▁ব্যাগ	-14442
▁মাওরা	-14443
▁মান্ট	-14444
▁রিপের	-14445
▁সাকিস	-14446
▁সেনার	-14447
angelos	-14448
taceous	-14449
versial	-14450
ক্রিপটে	-14451
িয়ানিক	-14452
ুরিয়ান	-14453
োলাইনার	-14454
▁arrive	-14455
▁babies	-14456
▁অভিহিত	-14457
▁কাস্টম	-14458
▁চিয়াও	-14459
▁প্রাতঃ	-14460
▁ব্যাবহ	-14461
▁ভ্রমণে	-14462
▁মোবাইল	-14463
ibberish	-14464
ঋতুকালীন	-14465
ক্রিপটেড	-14466
▁disable	-14467
▁hitoshi	-14468
▁mossack	-14469
▁rescued	-14470
▁restore	-14471
▁revenge	-14472
▁rumelia	-14473
▁sailors	-14474
▁sectors	-14475
▁session	-14476
▁setback	-14477
▁seventh	-14478
▁seventy	-14479
▁shortly	-14480
▁showers	-14481
▁showing	-14482
▁signals	-14483
▁sitting	-14484
▁speaker	-14485
▁studded	-14486
▁survive	-14487
▁televis	-14488
▁thereaf	-14489
▁tibetan	-14490
▁transit	-14491
▁trapped	-14492
▁unsolic	-14493
▁variety	-14494
▁vibrant	-14495
▁visited	-14496
▁volcano	-14497
▁warning	-14498
▁wasting	-14499
িপভ	-14500
▁১৫	-14501
deep	-14502
hire	-14503
lled	-14504
umpt	-14505
মিতে	-14506
স্কি	-14507
হলের	-14508
িপার	-14509
িপেন	-14510
িপ্ত	-14511
▁tru	-14512
▁zag	-14513
▁অফল	-14514
▁আসো	-14515
▁ইহু	-14516
▁নেব	-14517
▁১টি	-14518
ক্যাল	-14519
ল্পের	-14520
স্কের	-14521
োচারী	-14522
▁cafe	-14523
▁disc	-14524
▁disk	-14525
▁diva	-14526
▁dump	-14527
▁line	-14528
▁mine	-14529
▁nose	-14530
▁tire	-14531
▁ইফেস	-14532
▁এরকো	-14533
▁কপির	-14534
▁তোলা	-14535
▁নেবে	-14536
▁পিসি	-14537
▁স্টপ	-14538
ckland	-14539
ourges	-14540
pshire	-14541
ক্যালশ	-14542
বর্তিত	-14543
ভাগ্যব	-14544
ভূমিতে	-14545
োভস্কি	-14546
▁dance	-14547
▁excur	-14548
▁model	-14549
▁newly	-14550
▁setup	-14551
▁আসছিল	-14552
▁আসলের	-14553
▁আসায়	-14554
▁ইহুদি	-14555
▁জেলার	-14556
▁স্টের	-14557
▁হোমার	-14558
স্বাস্থ	-14559
▁doctor	-14560
▁seabed	-14561
▁trucks	-14562
▁unhurt	-14563
▁zagreb	-14564
▁অফলাইন	-14565
▁আইনসভা	-14566
▁কল্যাণ	-14567
▁থাকতেন	-14568
▁দেখাতে	-14569
▁পরবর্ত	-14570
▁বিকেলে	-14571
▁শারিপভ	-14572
▁স্ট্যা	-14573
ometowns	-14574
umptions	-14575
কুটস্কের	-14576
ভাগ্যবশত	-14577
্সিগুলির	-14578
▁physics	-14579
▁upright	-14580
▁weekend	-14581
▁westjet	-14582
▁অধিকারী	-14583
▁অধ্যক্ষ	-14584
▁অনুভূতি	-14585
▁অপেক্ষা	-14586
▁অপ্রস্ত	-14587
▁অব্যাহত	-14588
▁অর্থহীন	-14589
▁অসঙ্গতি	-14590
▁অ্যাক্ট	-14591
▁অ্যান্ড	-14592
▁অ্যারিজ	-14593
▁অ্যাালে	-14594
▁অ্য্যান	-14595
▁আকাশপথে	-14596
▁আটলান্ট	-14597
▁আঠারোটি	-14598
▁আমস্টার	-14599
(18	-14600
ocl	-14601
▁।"	-14602
cons	-14603
yaan	-14604
াহোর	-14605
ৈশিক	-14606
▁হুক	-14607
apole	-14608
inite	-14609
ocles	-14610
ostic	-14611
races	-14612
নিদের	-14613
িতবিদ	-14614
্কাতে	-14615
▁""।"	-14616
▁amen	-14617
▁ants	-14618
▁bron	-14619
▁caro	-14620
▁huss	-14621
▁semi	-14622
▁আঞ্চ	-14623
▁নিহত	-14624
▁পথকে	-14625
conies	-14626
iments	-14627
টগুলির	-14628
প্রধান	-14629
▁carol	-14630
▁marks	-14631
▁neare	-14632
▁spray	-14633
▁unite	-14634
▁কৈশিক	-14635
▁জঙ্গি	-14636
▁তিনিই	-14637
▁প্রথা	-14638
▁বেসবল	-14639
▁রাঞ্চ	-14640
ordable	-14641
rations	-14642
ঙ্গুয়া	-14643
ল্পবদ্ধ	-14644
শীলতাকে	-14645
সিম্পসন	-14646
▁bronze	-14647
▁carter	-14648
▁commem	-14649
▁fjords	-14650
▁napole	-14651
▁nearer	-14652
▁resist	-14653
▁routed	-14654
▁আজারির	-14655
▁দূরত্ব	-14656
▁প্রথমত	-14657
▁স্থানা	-14658
টর্নিদের	-14659
▁carolyn	-14660
▁facilit	-14661
▁funeral	-14662
▁hussars	-14663
▁knowing	-14664
▁mistake	-14665
▁obscure	-14666
▁sensory	-14667
▁অনুলিপি	-14668
▁আইডাহোর	-14669
▁আঞ্চলিক	-14670
▁আয়ত্তে	-14671
▁আর্যদের	-14672
▁ইনডাস্ট	-14673
▁ইসলামিক	-14674
▁উচ্চারন	-14675
▁উত্তরসূ	-14676
▁উপনিবেশ	-14677
▁উপাসনার	-14678
▁উষ্ণতার	-14679
▁উৎপাদিত	-14680
▁উৎসাহিত	-14681
▁ঋণাত্মক	-14682
▁এইচজেআর	-14683
▁এড়াতেই	-14684
▁এড়িয়ে	-14685
▁এনসেলাড	-14686
▁এমনভাবে	-14687
▁ওভেককিন	-14688
▁ওয়াল্ট	-14689
▁ওয়েস্ট	-14690
▁ওরবিটার	-14691
▁কংগ্রেস	-14692
▁কয়েকজন	-14693
▁করেছিলন	-14694
▁কর্মীরা	-14695
▁কালালিত	-14696
▁কিয়োটো	-14697
▁কিলোমিট	-14698
▁কুখ্যাত	-14699
ruk	-14700
free	-14701
troy	-14702
ynch	-14703
তারো	-14704
সানো	-14705
▁COV	-14706
▁nov	-14707
reely	-14708
story	-14709
বাহিন	-14710
স্যের	-14711
োয়ার	-14712
▁accu	-14713
▁bike	-14714
▁code	-14715
▁lord	-14716
▁meal	-14717
▁pays	-14718
▁poet	-14719
▁pool	-14720
▁says	-14721
▁twin	-14722
▁তত্স	-14723
▁যুবক	-14724
otings	-14725
parent	-14726
ruited	-14727
চ্ছন্ন	-14728
য়ারির	-14729
াইয়ার	-14730
োরেলের	-14731
▁COVID	-14732
▁elite	-14733
▁impro	-14734
▁kesel	-14735
▁mayor	-14736
▁yahoo	-14737
▁অবিরত	-14738
▁ইয়ার	-14739
▁করেনি	-14740
▁কাজটি	-14741
▁মানেই	-14742
ynchron	-14743
বাহীদের	-14744
িকারপ্র	-14745
ুরুষদের	-14746
্ট্রনের	-14747
▁Konami	-14748
▁disemb	-14749
▁greely	-14750
▁handle	-14751
▁saffir	-14752
▁tobruk	-14753
▁আঁকড়ে	-14754
▁ইরাকের	-14755
▁এনেছিল	-14756
▁ঝলসানো	-14757
▁নবীনতা	-14758
▁নেয়ার	-14759
▁পক্ষের	-14760
▁পায়নি	-14761
▁বিলটির	-14762
▁সুইচটি	-14763
▁হাইকিং	-14764
▁হাইতির	-14765
চ্ছ্বসিত	-14766
তারোহণের	-14767
নাইটলাইফ	-14768
বাহিনীতে	-14769
িউয়ারির	-14770
▁accents	-14771
▁auction	-14772
▁কার্টুন	-14773
▁কোর্সটি	-14774
▁ক্রমশবে	-14775
▁ক্রিকের	-14776
▁ক্রেডিট	-14777
▁ক্লারার	-14778
▁খামেনেই	-14779
▁খেয়েছে	-14780
▁খেলেছিল	-14781
▁গণমাধ্য	-14782
▁গতিবেগে	-14783
▁গন্ত্যব	-14784
▁গায়িকা	-14785
▁গুপ্তচর	-14786
▁গোড়ায়	-14787
▁গ্রিডলি	-14788
▁গ্রিপেন	-14789
▁গ্রেনেড	-14790
▁গ্র্যান	-14791
▁ঘণ্টায়	-14792
▁ঘণ্টারও	-14793
▁ঘনত্বের	-14794
▁ঘুরেছেন	-14795
▁চারজনের	-14796
▁চিটচিটে	-14797
▁চিহ্নটি	-14798
▁চৌহদ্দি	-14799
থিব	-14800
শনিক	-14801
িওনা	-14802
িওলা	-14803
িণের	-14804
anner	-14805
ordic	-14806
ওয়েভ	-14807
জারভে	-14808
পৃথিব	-14809
▁1994	-14810
▁ansa	-14811
▁derv	-14812
▁wary	-14813
▁উগ্র	-14814
▁কাটে	-14815
▁কেটে	-14816
▁নজরদ	-14817
▁পথের	-14818
▁মরিও	-14819
▁লুনো	-14820
▁সিটি	-14821
▁সোজা	-14822
▁১৯৩০	-14823
astery	-14824
ionary	-14825
শনগুলি	-14826
েন্টটি	-14827
োওয়েভ	-14828
▁alpha	-14829
▁coord	-14830
▁score	-14831
▁stuff	-14832
▁tests	-14833
▁অংশকে	-14834
▁অংশটা	-14835
▁কেনসথ	-14836
▁ছোট্ট	-14837
▁নাড়ী	-14838
▁প্রাগ	-14839
▁বিরাট	-14840
▁লাজুক	-14841
▁লালিত	-14842
▁লিওনা	-14843
▁সমগ্র	-14844
▁১৯০তম	-14845
ক্ষিণের	-14846
▁digest	-14847
▁nordic	-14848
▁privac	-14849
▁waving	-14850
▁কেদারা	-14851
▁ছড়ায়	-14852
▁ধাঁচের	-14853
▁ফাইবার	-14854
▁বিভক্ত	-14855
▁বিভ্রম	-14856
▁ব্যবসা	-14857
▁মরিওরি	-14858
▁রাখতেন	-14859
জারভেটিভ	-14860
পৃথিবীতে	-14861
মনোমরফিক	-14862
▁branson	-14863
▁clients	-14864
▁elderly	-14865
▁privacy	-14866
▁scanner	-14867
▁upanish	-14868
▁উত্তরের	-14869
▁কাজকর্ম	-14870
▁ছয়জনের	-14871
▁জলাভূমি	-14872
▁জাতিসংঘ	-14873
▁জাপাতের	-14874
▁জায়গার	-14875
▁জিওলজিক	-14876
▁জিম্বাব	-14877
▁জ্যানিস	-14878
▁ট্রুক্স	-14879
▁ট্রেনটন	-14880
▁ডিস্ট্র	-14881
▁তদারকির	-14882
▁তলদেশের	-14883
▁তাইজিচে	-14884
▁তাদেরকে	-14885
▁তারাদের	-14886
▁তিব্বতী	-14887
▁তুলেছিল	-14888
▁দম্পতির	-14889
▁দূরত্বে	-14890
▁দৃশ্যটি	-14891
▁দেখানোর	-14892
▁দেখেছেন	-14893
▁দ্বারের	-14894
▁ধনসম্পদ	-14895
▁ধনাত্মক	-14896
▁নগাও্যা	-14897
▁নজরদারি	-14898
▁নরওয়ের	-14899
ভবন	-14900
লিম	-14901
জমির	-14902
টারে	-14903
াব্য	-14904
▁জলজ	-14905
dhist	-14906
icken	-14907
phine	-14908
ফন্দে	-14909
বাদিক	-14910
▁feet	-14911
▁flag	-14912
▁ইভিং	-14913
▁ট্রা	-14914
▁বর্ম	-14915
▁হারে	-14916
▁১৯৭৩	-14917
airobi	-14918
uments	-14919
র্মনের	-14920
স্টারে	-14921
▁fever	-14922
▁intox	-14923
▁lease	-14924
▁phond	-14925
▁posed	-14926
▁solar	-14927
▁ইনপুট	-14928
▁উচ্চপ	-14929
▁জ্যাজ	-14930
▁ট্রিপ	-14931
▁ফার্ন	-14932
▁মসলিম	-14933
▁স্পিড	-14934
▁স্পেন	-14935
▁স্পোক	-14936
▁হিসাব	-14937
lements	-14938
ologist	-14939
ঞ্চারের	-14940
নিকাসের	-14941
সন্দেহে	-14942
▁11:29,	-14943
▁execut	-14944
▁profit	-14945
▁অ্যাাল	-14946
▁গল্পটি	-14947
▁ট্রাফল	-14948
▁ট্রায়	-14949
▁নিয়মে	-14950
▁বাসভবন	-14951
▁বিষয়ক	-14952
▁ব্য়য়	-14953
▁শিরায়	-14954
▁শিল্পে	-14955
▁স্প্রে	-14956
ishments	-14957
োবর্মনের	-14958
▁centers	-14959
▁chicken	-14960
▁concave	-14961
▁nairobi	-14962
▁phondey	-14963
▁related	-14964
▁rulings	-14965
▁উচ্চপদে	-14966
▁উৎপাদনে	-14967
▁গিয়েছে	-14968
▁ঘন্টারও	-14969
▁নাগরোণো	-14970
▁নাদালের	-14971
▁নামগিয়	-14972
▁নিউট্রন	-14973
▁নিয়মের	-14974
▁নিয়েছে	-14975
▁নির্যাস	-14976
▁নেবারহু	-14977
▁নৈতিকতা	-14978
▁নোটগুলি	-14979
▁পঞ্জিকা	-14980
▁পরগাছার	-14981
▁পরত্তয়	-14982
▁পরিচালন	-14983
▁পরিচিতি	-14984
▁পরিপূরক	-14985
▁পরিমানে	-14986
▁পরিসরের	-14987
▁পরিসেবা	-14988
▁পারদর্শ	-14989
▁পুলিশের	-14990
▁পূরণীয়	-14991
▁পূর্বেও	-14992
▁পেটেন্ট	-14993
▁পেট্রোস	-14994
▁পেরেছিল	-14995
▁পৌঁছোতে	-14996
▁প্যাসিফ	-14997
▁প্রতিটা	-14998
▁প্রতিহত	-14999
39,	-15000
পুচ	-15001
িগো	-15002
▁২৩	-15003
▁২৪	-15004
▁২৬	-15005
▁২৮	-15006
umac	-15007
কোষী	-15008
পচার	-15009
ফতরে	-15010
বিএস	-15011
মাগি	-15012
▁20'	-15013
▁20,	-15014
▁২টি	-15015
acent	-15016
acity	-15017
arean	-15018
legal	-15019
orses	-15020
▁bail	-15021
▁gets	-15022
▁guns	-15023
▁skin	-15024
▁wade	-15025
▁এখনো	-15026
▁ওপরে	-15027
▁কারি	-15028
▁কোটি	-15029
▁কোলা	-15030
▁দশটি	-15031
▁রদ্র	-15032
▁স্নো	-15033
দেশটির	-15034
প্রাইম	-15035
▁1639,	-15036
▁calls	-15037
▁fears	-15038
▁fused	-15039
▁ranks	-15040
▁skate	-15041
▁কারের	-15042
▁গলানো	-15043
▁গ্রাঁ	-15044
▁ট্রেক	-15045
▁তুমুল	-15046
▁দফতরে	-15047
▁বাইতে	-15048
▁বালুক	-15049
▁লস্কর	-15050
umacher	-15051
ন্ডবিএস	-15052
পচারিতা	-15053
▁active	-15054
▁hispan	-15055
▁horses	-15056
▁locals	-15057
▁micros	-15058
▁select	-15059
▁এককোষী	-15060
▁কোলাহল	-15061
▁গাড়িব	-15062
▁গাড়ির	-15063
▁বিষটির	-15064
▁ব্যাকক	-15065
▁স্তরেও	-15066
▁হুইলের	-15067
মাগিগিয়	-15068
▁earning	-15069
▁evening	-15070
▁অধিকারে	-15071
▁কারিগরি	-15072
▁গাড়িকে	-15073
▁পদচ্যুত	-15074
▁প্রভাবই	-15075
▁প্রভাবশ	-15076
▁প্রভাবে	-15077
▁প্রশংসন	-15078
▁প্রশংসা	-15079
▁প্রসূতি	-15080
▁প্রাগের	-15081
▁প্রাচীর	-15082
▁প্রাণীর	-15083
▁প্রিন্ট	-15084
▁ফুয়েলে	-15085
▁ফেন্সার	-15086
▁ফেলেছিল	-15087
▁ফোনটিকে	-15088
▁ফোল্ডার	-15089
▁ফ্রেঞ্চ	-15090
▁বজ্রপাত	-15091
▁বড়গুলি	-15092
▁বস্তুকে	-15093
▁বহুমুখী	-15094
▁বাঁচানো	-15095
▁বাজানোর	-15096
▁বাণিজ্য	-15097
▁বিছানাও	-15098
▁বিদ্যুত	-15099
oga	-15100
blos	-15101
ofan	-15102
ogle	-15103
শ্যক	-15104
ামীণ	-15105
▁গেট	-15106
▁বেগ	-15107
▁মুজ	-15108
chief	-15109
চেঞ্জ	-15110
চ্চুর	-15111
রক্ষা	-15112
▁prey	-15113
▁yach	-15114
▁আন্ড	-15115
▁একদা	-15116
▁টাইট	-15117
▁দলটি	-15118
▁মাইন	-15119
▁মুছে	-15120
▁সাদা	-15121
দিয়ার	-15122
নিয়ার	-15123
াধিকার	-15124
▁1649,	-15125
▁beach	-15126
▁curse	-15127
▁dynam	-15128
▁smith	-15129
▁teach	-15130
▁toron	-15131
▁অপদ্র	-15132
▁উদ্ভব	-15133
▁ঠাণ্ড	-15134
▁বললেন	-15135
▁বেড়ে	-15136
▁যাজকত	-15137
achment	-15138
ipeline	-15139
দাওয়ার	-15140
িয়ারের	-15141
▁corcov	-15142
▁google	-15143
▁ladoga	-15144
▁placed	-15145
▁prefer	-15146
▁relied	-15147
▁stofan	-15148
▁submit	-15149
▁yachts	-15150
▁আন্ডার	-15151
▁কিউবিক	-15152
▁ঠাণ্ডা	-15153
▁পরিবেশ	-15154
▁বয়স্ক	-15155
▁বিশেষে	-15156
▁ব্রাইট	-15157
▁মাইলার	-15158
▁সূর্যে	-15159
angement	-15160
applying	-15161
attended	-15162
ographer	-15163
্যান্ডেট	-15164
▁783,562	-15165
▁examine	-15166
▁inquiry	-15167
▁pueblos	-15168
▁roberts	-15169
▁toronto	-15170
▁একদাগের	-15171
▁গ্রামীণ	-15172
▁দূর্গটি	-15173
▁পিচ্চুর	-15174
▁বিবর্তন	-15175
▁বিবাহের	-15176
▁বিবৃতির	-15177
▁বিশ্বকে	-15178
▁বিষয়কে	-15179
▁বৃষ্টির	-15180
▁বেনিনের	-15181
▁বেলগ্রে	-15182
▁বেশকিছু	-15183
▁বৈচিত্র	-15184
▁বোস্টোন	-15185
▁ব্যবসার	-15186
▁ব্যাটেন	-15187
▁ব্যাণ্ড	-15188
▁ব্রিজটি	-15189
▁ব্রিজের	-15190
▁ব্রিটেন	-15191
▁ব্রেভিস	-15192
▁ভক্তদের	-15193
▁ভ্যাঙ্ক	-15194
▁মতবাদের	-15195
▁মদ্যপান	-15196
▁মধ্যদূর	-15197
▁মন্ত্রক	-15198
▁মর্টগেজ	-15199
haw	-15200
law	-15201
মিফ	-15202
সিজ	-15203
▁-1	-15204
▁-[	-15205
body	-15206
গিরা	-15207
াতেহ	-15208
▁pbs	-15209
▁অসম	-15210
▁টমি	-15211
▁ডিজ	-15212
yslaw	-15213
ীতায়	-15214
্দ্রো	-15215
▁belt	-15216
▁fitt	-15217
▁mitt	-15218
▁vers	-15219
▁অবশই	-15220
▁খাতে	-15221
▁ডুবে	-15222
▁নুসা	-15223
▁বলবে	-15224
▁শকের	-15225
entown	-15226
hawaii	-15227
মন্ত্র	-15228
সংখ্যক	-15229
ুকগুলি	-15230
্যাক্ট	-15231
▁1759,	-15232
▁funds	-15233
▁marta	-15234
▁risky	-15235
▁shown	-15236
▁valet	-15237
▁অসমতল	-15238
▁এডিটে	-15239
▁ক্রাই	-15240
▁ঘাসের	-15241
▁টিউবে	-15242
▁থিমের	-15243
▁ফাতেহ	-15244
▁বলছেন	-15245
▁সেমিফ	-15246
▁স্টীম	-15247
▁belive	-15248
▁murals	-15249
▁versus	-15250
▁ক্যাসে	-15251
▁খাঁড়ি	-15252
▁ডিজাইন	-15253
▁শতাংশই	-15254
▁শেখায়	-15255
ashioned	-15256
তাপাতায়	-15257
বুলচারকে	-15258
মন্ত্রীর	-15259
সান্দ্রো	-15260
▁beltway	-15261
▁falling	-15262
▁ordered	-15263
▁stating	-15264
▁valetta	-15265
▁মহাদেশে	-15266
▁মহামারী	-15267
▁মহাসড়ক	-15268
▁মানবহীন	-15269
▁মানানসই	-15270
▁মায়ামি	-15271
▁মালগুলো	-15272
▁মাল্টার	-15273
▁মিস্টিক	-15274
▁মুক্তির	-15275
▁মুনাফার	-15276
▁মূলগুলি	-15277
▁মূল্যবো	-15278
▁মেডিটের	-15279
▁যাচ্ছেন	-15280
▁যুবকদের	-15281
▁যৌগগুলি	-15282
▁রক্তপাত	-15283
▁রদ্রিগো	-15284
▁ল্যান্ড	-15285
▁ল্যাপটপ	-15286
▁শিক্ষাথ	-15287
▁শুমাচার	-15288
▁শেখানোর	-15289
▁শেষদিকে	-15290
▁শ্রেণির	-15291
▁শ্রেণীর	-15292
▁সদস্যরা	-15293
▁সভ্যতার	-15294
▁সমন্বয়	-15295
▁সময়কাল	-15296
▁সমর্থনে	-15297
▁সমস্যাও	-15298
▁সমুদায়	-15299
").	-15300
▁45	-15301
িডার	-15302
▁(30	-15303
▁400	-15304
▁buy	-15305
▁zam	-15306
▁আলপ	-15307
▁জিড	-15308
▁দোষ	-15309
▁রিড	-15310
often	-15311
োপুরি	-15312
্লিকা	-15313
▁1000	-15314
▁3000	-15315
▁buch	-15316
▁remn	-15317
▁remo	-15318
▁rems	-15319
▁zone	-15320
▁অবগত	-15321
▁কেনে	-15322
▁টাইন	-15323
rypted	-15324
uffled	-15325
ার্জিত	-15326
ুগুলোর	-15327
▁splur	-15328
▁thras	-15329
▁আখ্যা	-15330
▁এমনকী	-15331
▁ডাম্প	-15332
▁নামটি	-15333
▁পরিকা	-15334
▁লিডার	-15335
▁লোকটি	-15336
▁শহরেও	-15337
▁সকলেই	-15338
▁৬০টির	-15339
ressing	-15340
চেস্টার	-15341
▁eating	-15342
▁plasma	-15343
▁swerve	-15344
▁thirds	-15345
▁zambia	-15346
▁আলপাইন	-15347
▁জিডিপি	-15348
▁দোষারপ	-15349
▁ধরেছিল	-15350
ত্রীসংগঠ	-15351
িংহাসনের	-15352
▁marking	-15353
▁purcell	-15354
▁removed	-15355
▁seeking	-15356
▁আদিবাসী	-15357
▁কেনিয়া	-15358
▁বিশ্রাম	-15359
▁মিটারের	-15360
▁যেগুলোর	-15361
▁সরবরাহও	-15362
▁সরবরাহে	-15363
▁সরস্বতী	-15364
▁সর্বমোট	-15365
▁সাজানোর	-15366
▁সাদৃশ্য	-15367
▁সীমানার	-15368
▁সীমাহীন	-15369
▁সুপ্রিম	-15370
▁সূর্যকে	-15371
▁সৃজনশীল	-15372
▁সেগুলিই	-15373
▁সেগুলোর	-15374
▁সেভিয়া	-15375
▁সোমবারে	-15376
▁স্কার্প	-15377
▁স্কেটের	-15378
▁স্কোপোল	-15379
▁স্ক্রিন	-15380
▁স্টারনস	-15381
▁স্টেরিও	-15382
▁স্ট্রিম	-15383
▁স্থানের	-15384
▁স্পিকার	-15385
▁স্মৃতির	-15386
▁হাওয়ার	-15387
▁হামোমাক	-15388
▁হিলগুলি	-15389
▁হিসাবেও	-15390
▁হুসাররা	-15391
▁হোটেলেই	-15392
aeosaurid	-15393
ationally	-15394
cosmonaut	-15395
endations	-15396
friendlin	-15397
izabethae	-15398
izational	-15399
ুকু	-15400
both	-15401
pled	-15402
ঙ্কর	-15403
ডিসি	-15404
বিআই	-15405
বিধি	-15406
▁340	-15407
geons	-15408
insic	-15409
langu	-15410
place	-15411
plish	-15412
ulins	-15413
তটুকু	-15414
যাপিত	-15415
সঙ্কর	-15416
সার্ট	-15417
ালাউস	-15418
িপত্য	-15419
ুবচনে	-15420
▁surr	-15421
▁wins	-15422
▁উটার	-15423
▁এটার	-15424
ংখ্যান	-15425
▁2010,	-15426
▁arche	-15427
▁crime	-15428
▁crust	-15429
▁deser	-15430
▁glynn	-15431
▁lists	-15432
▁studs	-15433
▁ওডিসি	-15434
▁জার্ক	-15435
▁বিপুল	-15436
enerate	-15437
ighbors	-15438
paulins	-15439
বহুবচনে	-15440
ালাউসিস	-15441
▁attorn	-15442
▁defend	-15443
▁soleil	-15444
▁এফবিআই	-15445
▁কথাবার	-15446
▁খেলায়	-15447
▁ততটুকু	-15448
▁তুলেছে	-15449
▁বিপদের	-15450
▁সাজাতে	-15451
language	-15452
ল্যান্ডো	-15453
▁amazing	-15454
▁brewery	-15455
▁deserts	-15456
▁reconqu	-15457
▁respect	-15458
▁sampled	-15459
▁studies	-15460
▁অ্যালেন	-15461
▁আধিপত্য	-15462
▁উদযাপিত	-15463
▁এগুলিতে	-15464
▁ওসাকাতে	-15465
▁কনসার্ট	-15466
▁গতিবিধি	-15467
▁গেলাপাগ	-15468
▁ব্যাঙ্ক	-15469
▁মন্দিরে	-15470
▁যুদ্ধটি	-15471
neighbors	-15472
occurring	-15473
omination	-15474
political	-15475
principle	-15476
sarasvati	-15477
unciation	-15478
vehicular	-15479
yscrapers	-15480
অর্থনৈতিক	-15481
ওয়াইল্ডস	-15482
ওয়ালগুলি	-15483
ওয়াল্ডার	-15484
ক্সগুলিতে	-15485
জ্জগুলিকে	-15486
টাইপযুক্ত	-15487
ড়াবিদদের	-15488
ডাইনোসরের	-15489
পনিষদগুলি	-15490
বিজ্ঞানের	-15491
বিদ্যালয়	-15492
ভ্যন্তরীণ	-15493
মনিয়োগের	-15494
য়েন্টদের	-15495
যাত্রীদের	-15496
রেস্তোঁরা	-15497
ল্যাণ্ডের	-15498
ল্যান্ডার	-15499
abwe	-15500
র্ডো	-15501
হীরা	-15502
োসোন	-15503
▁গজে	-15504
▁মহা	-15505
▁মহৎ	-15506
▁মোস	-15507
▁সোস	-15508
1,000	-15509
ম্বিং	-15510
ার্থী	-15511
িকানা	-15512
িঠিটি	-15513
▁1480	-15514
▁rodr	-15515
▁আর্ক	-15516
▁ঢাকা	-15517
▁বানা	-15518
▁বিরত	-15519
▁মহান	-15520
▁লর্ড	-15521
▁শুনে	-15522
▁হংকং	-15523
onward	-15524
ইয়েরই	-15525
ক্ষণের	-15526
মুর্ডো	-15527
ম্বীরা	-15528
্যাদার	-15529
▁3,000	-15530
▁color	-15531
▁monks	-15532
▁monom	-15533
▁rainy	-15534
▁অন্তত	-15535
▁আজীবন	-15536
▁জোসোন	-15537
▁লেঞ্জ	-15538
$11,000	-15539
▁abnorm	-15540
▁bardia	-15541
▁inward	-15542
▁monter	-15543
▁অদলবদল	-15544
▁কিনেছে	-15545
▁চিঠিটি	-15546
▁মানারো	-15547
▁সকেটের	-15548
▁হচ্ছেঃ	-15549
প্রার্থী	-15550
▁artemis	-15551
▁forward	-15552
▁heather	-15553
▁informs	-15554
▁newness	-15555
▁nikolak	-15556
▁rodrigo	-15557
▁welling	-15558
▁অনুমতির	-15559
▁আর্কটিক	-15560
▁ইউনিটের	-15561
▁ডাবলিনে	-15562
▁থাকাদের	-15563
▁বানাবার	-15564
▁মন্ত্রী	-15565
▁মোটরসাই	-15566
▁মোস্যাক	-15567
▁সোসাইটি	-15568
prominent	-15569
সংক্রান্ত	-15570
সম্মতভাবে	-15571
সৌরিদায়ে	-15572
াংবিধানিক	-15573
াইল্ডলাইফ	-15574
ামানিয়ান	-15575
িকুয়েন্ট	-15576
িটেসিয়াস	-15577
িস্ট্রেশন	-15578
েন্সিগুলি	-15579
েলিকপ্টার	-15580
োলাকোপল্ল	-15581
্যাডিয়াম	-15582
্লাসগোতেও	-15583
▁absorbed	-15584
▁accurate	-15585
▁activism	-15586
▁admirals	-15587
▁agedness	-15588
▁aircraft	-15589
▁annually	-15590
▁aristoph	-15591
▁arterial	-15592
▁assigned	-15593
▁baseball	-15594
▁believer	-15595
▁beverage	-15596
▁billions	-15597
▁birthday	-15598
▁blinking	-15599
বছর	-15600
aism	-15601
born	-15602
orno	-15603
োডিন	-15604
▁আজও	-15605
▁খাট	-15606
4,500	-15607
clock	-15608
ত্রিশ	-15609
স্কেপ	-15610
▁1956	-15611
▁আজকে	-15612
▁আরেক	-15613
▁আশের	-15614
▁থাবা	-15615
▁সেসব	-15616
ত্রীয়	-15617
ান্টরি	-15618
▁1610,	-15619
▁asset	-15620
▁backd	-15621
▁backs	-15622
▁bones	-15623
▁drove	-15624
▁ideal	-15625
▁lines	-15626
▁medie	-15627
▁metal	-15628
▁monte	-15629
▁paras	-15630
▁paris	-15631
▁অন্তর	-15632
▁অবগতি	-15633
▁ওয়েজ	-15634
▁গতবছর	-15635
▁চালান	-15636
▁দিনেই	-15637
[...]
